{
  "version": "1.0",
  "truncation": null,
  "padding": null,
  "added_tokens": [
    {
      "id": 0,
      "content": "<|endoftext|>",
      "single_word": false,
      "lstrip": false,
      "rstrip": false,
      "normalized": false,
      "special": true
    },
    {
      "id": 1,
      "content": "<|padding|>",
      "single_word": false,
      "lstrip": false,
      "rstrip": false,
      "normalized": false,
      "special": true
    },
    {
      "id": 2,
      "content": "<|cls|>",
      "single_word": false,
      "lstrip": false,
      "rstrip": false,
      "normalized": false,
      "special": true
    },
    {
      "id": 3,
      "content": "<|sep|>",
      "single_word": false,
      "lstrip": false,
      "rstrip": false,
      "normalized": false,
      "special": true
    },
    {
      "id": 4,
      "content": "<|user|>",
      "single_word": false,
      "lstrip": false,
      "rstrip": false,
      "normalized": false,
      "special": true
    },
    {
      "id": 5,
      "content": "<|system|>",
      "single_word": false,
      "lstrip": false,
      "rstrip": false,
      "normalized": false,
      "special": true
    },
    {
      "id": 6,
      "content": "<|assistant|>",
      "single_word": false,
      "lstrip": false,
      "rstrip": false,
      "normalized": false,
      "special": true
    },
    {
      "id": 7,
      "content": "<|endofuser|>",
      "single_word": false,
      "lstrip": false,
      "rstrip": false,
      "normalized": false,
      "special": true
    },
    {
      "id": 8,
      "content": "<|endofsystem|>",
      "single_word": false,
      "lstrip": false,
      "rstrip": false,
      "normalized": false,
      "special": true
    },
    {
      "id": 9,
      "content": "<|endofassistant|>",
      "single_word": false,
      "lstrip": false,
      "rstrip": false,
      "normalized": false,
      "special": true
    },
    {
      "id": 10,
      "content": "<|unused6|>",
      "single_word": false,
      "lstrip": false,
      "rstrip": false,
      "normalized": false,
      "special": true
    },
    {
      "id": 11,
      "content": "<|unused7|>",
      "single_word": false,
      "lstrip": false,
      "rstrip": false,
      "normalized": false,
      "special": true
    },
    {
      "id": 12,
      "content": "<|unused8|>",
      "single_word": false,
      "lstrip": false,
      "rstrip": false,
      "normalized": false,
      "special": true
    },
    {
      "id": 13,
      "content": "<|unused9|>",
      "single_word": false,
      "lstrip": false,
      "rstrip": false,
      "normalized": false,
      "special": true
    },
    {
      "id": 32750,
      "content": "  ",
      "single_word": false,
      "lstrip": false,
      "rstrip": false,
      "normalized": true,
      "special": false
    },
    {
      "id": 32751,
      "content": "   ",
      "single_word": false,
      "lstrip": false,
      "rstrip": false,
      "normalized": true,
      "special": false
    },
    {
      "id": 32752,
      "content": "    ",
      "single_word": false,
      "lstrip": false,
      "rstrip": false,
      "normalized": true,
      "special": false
    },
    {
      "id": 32753,
      "content": "     ",
      "single_word": false,
      "lstrip": false,
      "rstrip": false,
      "normalized": true,
      "special": false
    },
    {
      "id": 32754,
      "content": "      ",
      "single_word": false,
      "lstrip": false,
      "rstrip": false,
      "normalized": true,
      "special": false
    },
    {
      "id": 32755,
      "content": "       ",
      "single_word": false,
      "lstrip": false,
      "rstrip": false,
      "normalized": true,
      "special": false
    },
    {
      "id": 32756,
      "content": "        ",
      "single_word": false,
      "lstrip": false,
      "rstrip": false,
      "normalized": true,
      "special": false
    },
    {
      "id": 32757,
      "content": "         ",
      "single_word": false,
      "lstrip": false,
      "rstrip": false,
      "normalized": true,
      "special": false
    },
    {
      "id": 32758,
      "content": "          ",
      "single_word": false,
      "lstrip": false,
      "rstrip": false,
      "normalized": true,
      "special": false
    },
    {
      "id": 32759,
      "content": "           ",
      "single_word": false,
      "lstrip": false,
      "rstrip": false,
      "normalized": true,
      "special": false
    },
    {
      "id": 32760,
      "content": "            ",
      "single_word": false,
      "lstrip": false,
      "rstrip": false,
      "normalized": true,
      "special": false
    },
    {
      "id": 32761,
      "content": "             ",
      "single_word": false,
      "lstrip": false,
      "rstrip": false,
      "normalized": true,
      "special": false
    },
    {
      "id": 32762,
      "content": "              ",
      "single_word": false,
      "lstrip": false,
      "rstrip": false,
      "normalized": true,
      "special": false
    },
    {
      "id": 32763,
      "content": "               ",
      "single_word": false,
      "lstrip": false,
      "rstrip": false,
      "normalized": true,
      "special": false
    },
    {
      "id": 32764,
      "content": "\t\t",
      "single_word": false,
      "lstrip": false,
      "rstrip": false,
      "normalized": true,
      "special": false
    },
    {
      "id": 32765,
      "content": "\t\t\t",
      "single_word": false,
      "lstrip": false,
      "rstrip": false,
      "normalized": true,
      "special": false
    },
    {
      "id": 32766,
      "content": "\n\n",
      "single_word": false,
      "lstrip": false,
      "rstrip": false,
      "normalized": true,
      "special": false
    },
    {
      "id": 32767,
      "content": "\n\n\n",
      "single_word": false,
      "lstrip": false,
      "rstrip": false,
      "normalized": true,
      "special": false
    }
  ],
  "normalizer": {
    "type": "NFKC"
  },
  "pre_tokenizer": {
    "type": "ByteLevel",
    "add_prefix_space": false,
    "trim_offsets": true,
    "use_regex": true
  },
  "post_processor": {
    "type": "ByteLevel",
    "add_prefix_space": true,
    "trim_offsets": true,
    "use_regex": true
  },
  "decoder": {
    "type": "ByteLevel",
    "add_prefix_space": true,
    "trim_offsets": true,
    "use_regex": true
  },
  "model": {
    "type": "BPE",
    "dropout": null,
    "unk_token": null,
    "continuing_subword_prefix": null,
    "end_of_word_suffix": null,
    "fuse_unk": false,
    "byte_fallback": false,
    "ignore_merges": false,
    "vocab": {
      "<|endoftext|>": 0,
      "<|padding|>": 1,
      "<|cls|>": 2,
      "<|sep|>": 3,
      "<|user|>": 4,
      "<|system|>": 5,
      "<|assistant|>": 6,
      "<|endofuser|>": 7,
      "<|endofsystem|>": 8,
      "<|endofassistant|>": 9,
      "<|unused6|>": 10,
      "<|unused7|>": 11,
      "<|unused8|>": 12,
      "<|unused9|>": 13,
      "!": 14,
      "\"": 15,
      "#": 16,
      "$": 17,
      "%": 18,
      "&": 19,
      "'": 20,
      "(": 21,
      ")": 22,
      "*": 23,
      "+": 24,
      ",": 25,
      "-": 26,
      ".": 27,
      "/": 28,
      "0": 29,
      "1": 30,
      "2": 31,
      "3": 32,
      "4": 33,
      "5": 34,
      "6": 35,
      "7": 36,
      "8": 37,
      "9": 38,
      ":": 39,
      ";": 40,
      "<": 41,
      "=": 42,
      ">": 43,
      "?": 44,
      "@": 45,
      "A": 46,
      "B": 47,
      "C": 48,
      "D": 49,
      "E": 50,
      "F": 51,
      "G": 52,
      "H": 53,
      "I": 54,
      "J": 55,
      "K": 56,
      "L": 57,
      "M": 58,
      "N": 59,
      "O": 60,
      "P": 61,
      "Q": 62,
      "R": 63,
      "S": 64,
      "T": 65,
      "U": 66,
      "V": 67,
      "W": 68,
      "X": 69,
      "Y": 70,
      "Z": 71,
      "[": 72,
      "\\": 73,
      "]": 74,
      "^": 75,
      "_": 76,
      "`": 77,
      "a": 78,
      "b": 79,
      "c": 80,
      "d": 81,
      "e": 82,
      "f": 83,
      "g": 84,
      "h": 85,
      "i": 86,
      "j": 87,
      "k": 88,
      "l": 89,
      "m": 90,
      "n": 91,
      "o": 92,
      "p": 93,
      "q": 94,
      "r": 95,
      "s": 96,
      "t": 97,
      "u": 98,
      "v": 99,
      "w": 100,
      "x": 101,
      "y": 102,
      "z": 103,
      "{": 104,
      "|": 105,
      "}": 106,
      "~": 107,
      "¡": 108,
      "¢": 109,
      "£": 110,
      "¤": 111,
      "¥": 112,
      "¦": 113,
      "§": 114,
      "¨": 115,
      "©": 116,
      "ª": 117,
      "«": 118,
      "¬": 119,
      "®": 120,
      "¯": 121,
      "°": 122,
      "±": 123,
      "²": 124,
      "³": 125,
      "´": 126,
      "µ": 127,
      "¶": 128,
      "·": 129,
      "¸": 130,
      "¹": 131,
      "º": 132,
      "»": 133,
      "¼": 134,
      "½": 135,
      "¾": 136,
      "¿": 137,
      "À": 138,
      "Á": 139,
      "Â": 140,
      "Ã": 141,
      "Ä": 142,
      "Å": 143,
      "Æ": 144,
      "Ç": 145,
      "È": 146,
      "É": 147,
      "Ê": 148,
      "Ë": 149,
      "Ì": 150,
      "Í": 151,
      "Î": 152,
      "Ï": 153,
      "Ð": 154,
      "Ñ": 155,
      "Ò": 156,
      "Ó": 157,
      "Ô": 158,
      "Õ": 159,
      "Ö": 160,
      "×": 161,
      "Ø": 162,
      "Ù": 163,
      "Ú": 164,
      "Û": 165,
      "Ü": 166,
      "Ý": 167,
      "Þ": 168,
      "ß": 169,
      "à": 170,
      "á": 171,
      "â": 172,
      "ã": 173,
      "ä": 174,
      "å": 175,
      "æ": 176,
      "ç": 177,
      "è": 178,
      "é": 179,
      "ê": 180,
      "ë": 181,
      "ì": 182,
      "í": 183,
      "î": 184,
      "ï": 185,
      "ð": 186,
      "ñ": 187,
      "ò": 188,
      "ó": 189,
      "ô": 190,
      "õ": 191,
      "ö": 192,
      "÷": 193,
      "ø": 194,
      "ù": 195,
      "ú": 196,
      "û": 197,
      "ü": 198,
      "ý": 199,
      "þ": 200,
      "ÿ": 201,
      "Ā": 202,
      "ā": 203,
      "Ă": 204,
      "ă": 205,
      "Ą": 206,
      "ą": 207,
      "Ć": 208,
      "ć": 209,
      "Ĉ": 210,
      "ĉ": 211,
      "Ċ": 212,
      "ċ": 213,
      "Č": 214,
      "č": 215,
      "Ď": 216,
      "ď": 217,
      "Đ": 218,
      "đ": 219,
      "Ē": 220,
      "ē": 221,
      "Ĕ": 222,
      "ĕ": 223,
      "Ė": 224,
      "ė": 225,
      "Ę": 226,
      "ę": 227,
      "Ě": 228,
      "ě": 229,
      "Ĝ": 230,
      "ĝ": 231,
      "Ğ": 232,
      "ğ": 233,
      "Ġ": 234,
      "ġ": 235,
      "Ģ": 236,
      "ģ": 237,
      "Ĥ": 238,
      "ĥ": 239,
      "Ħ": 240,
      "ħ": 241,
      "Ĩ": 242,
      "ĩ": 243,
      "Ī": 244,
      "ī": 245,
      "Ĭ": 246,
      "ĭ": 247,
      "Į": 248,
      "į": 249,
      "İ": 250,
      "ı": 251,
      "Ĳ": 252,
      "ĳ": 253,
      "Ĵ": 254,
      "ĵ": 255,
      "Ķ": 256,
      "ķ": 257,
      "ĸ": 258,
      "Ĺ": 259,
      "ĺ": 260,
      "Ļ": 261,
      "ļ": 262,
      "Ľ": 263,
      "ľ": 264,
      "Ŀ": 265,
      "ŀ": 266,
      "Ł": 267,
      "ł": 268,
      "Ń": 269,
      "ãģ": 270,
      "ãĤ": 271,
      "ãĥ": 272,
      "ãĢ": 273,
      "ãģ®": 274,
      "ãĢģ": 275,
      "ãģ«": 276,
      "ãģĦ": 277,
      "ãĢĤ": 278,
      "ãģĹ": 279,
      "ãģŁ": 280,
      "ãģ¦": 281,
      "ãģ¨": 282,
      "ãĤĭ": 283,
      "ãģ§": 284,
      "ãĥ¼": 285,
      "ãĤĴ": 286,
      "ãģ¯": 287,
      "ãģĮ": 288,
      "ãģª": 289,
      "ãĥ³": 290,
      "ãģĻ": 291,
      "ä¸": 292,
      "ãģ¾": 293,
      "æľ": 294,
      "ãĤĮ": 295,
      "å¹": 296,
      "ãģĭ": 297,
      "ãģ£": 298,
      "äº": 299,
      "å¹´": 300,
      "ãĤĤ": 301,
      "ãĤĬ": 302,
      "ãĤ¹": 303,
      "çĶ": 304,
      "ãĤī": 305,
      "å¤": 306,
      "ãĥ¼ãĥ": 307,
      "ãģĵ": 308,
      "ãģĨ": 309,
      "æĹ": 310,
      "å®": 311,
      "ãĥ»": 312,
      "åħ": 313,
      "ãĤ¤": 314,
      "ãģķ": 315,
      "åı": 316,
      "ãģĤ": 317,
      "ä»": 318,
      "ãĥ«": 319,
      "ä½": 320,
      "åĲ": 321,
      "æĹ¥": 322,
      "ãĥĪ": 323,
      "åĪ": 324,
      "ãģı": 325,
      "ãĥª": 326,
      "ãĤ¢": 327,
      "åŃ": 328,
      "ãĥ©": 329,
      "ãĥĥ": 330,
      "æĸ": 331,
      "ãĤ¯": 332,
      "ãģį": 333,
      "éĸ": 334,
      "ãĤĪ": 335,
      "éĢ": 336,
      "éģ": 337,
      "ãĤĵ": 338,
      "åĽ": 339,
      "ãĢĮ": 340,
      "ãĢį": 341,
      "è¡": 342,
      "æľĪ": 343,
      "ãģĻãĤĭ": 344,
      "è¨": 345,
      "äºº": 346,
      "ãģĬ": 347,
      "ãģł": 348,
      "è¦": 349,
      "ãģĳ": 350,
      "æĿ": 351,
      "ãģĵãģ¨": 352,
      "ãģĿ": 353,
      "ä¼": 354,
      "ãĤ·": 355,
      "ãĤ¿": 356,
      "å¤§": 357,
      "å¾": 358,
      "æī": 359,
      "ãĥ¬": 360,
      "ãĤģ": 361,
      "ãģĭãĤī": 362,
      "åľ": 363,
      "çµ": 364,
      "ãĥ³ãĥ": 365,
      "æľ¬": 366,
      "éĥ": 367,
      "å¸": 368,
      "ãĤ¸": 369,
      "æĪ": 370,
      "åº": 371,
      "ãĥķ": 372,
      "å½": 373,
      "åĭ": 374,
      "åĩ": 375,
      "çĽ": 376,
      "ãģ©": 377,
      "ãĥŃ": 378,
      "åł": 379,
      "èª": 380,
      "æŃ": 381,
      "æĢ": 382,
      "å°": 383,
      "ãĤĦ": 384,
      "ãģĪ": 385,
      "ãĤ«": 386,
      "å±": 387,
      "çī": 388,
      "åŃ¦": 389,
      "éĩ": 390,
      "åĬ": 391,
      "æĻ": 392,
      "åĩº": 393,
      "çĻ": 394,
      "ãģ¤": 395,
      "æ°": 396,
      "æķ": 397,
      "åį": 398,
      "æĺ": 399,
      "ä¸Ģ": 400,
      "èĢ": 401,
      "åĮ": 402,
      "ãĤ°": 403,
      "ãĤı": 404,
      "ä¸Ń": 405,
      "å·": 406,
      "ãĥĨ": 407,
      "ãĤ£": 408,
      "åĨ": 409,
      "å¼": 410,
      "ãĤ³": 411,
      "æ¥": 412,
      "ãģ¡": 413,
      "ãģĽ": 414,
      "è¡Į": 415,
      "ä¼ļ": 416,
      "æĽ": 417,
      "ç´": 418,
      "ãĥĹ": 419,
      "ãĥŀ": 420,
      "éĽ": 421,
      "å¿": 422,
      "ãĥ¡": 423,
      "æĻĤ": 424,
      "ãĤµ": 425,
      "å¯": 426,
      "æĶ": 427,
      "åĲĪ": 428,
      "åī": 429,
      "ãģ¿": 430,
      "æ³": 431,
      "äºĭ": 432,
      "èĩ": 433,
      "åĽ½": 434,
      "ç·": 435,
      "ç§": 436,
      "åł´": 437,
      "ãĤª": 438,
      "ä½ľ": 439,
      "çĶŁ": 440,
      "è»": 441,
      "å¥": 442,
      "ãĥī": 443,
      "ãĥĲ": 444,
      "ç¤": 445,
      "éĻ": 446,
      "æł": 447,
      "ä¿": 448,
      "åĪĨ": 449,
      "ä¸Ĭ": 450,
      "çļ": 451,
      "ç«": 452,
      "çĶ¨": 453,
      "ãĢİ": 454,
      "ãĢı": 455,
      "éĥ¨": 456,
      "ãĥĩ": 457,
      "è©": 458,
      "çķ": 459,
      "ãĤ¦": 460,
      "çľ": 461,
      "ãĥ£": 462,
      "éĸĵ": 463,
      "ãĤŃ": 464,
      "æĦ": 465,
      "åĵ": 466,
      "æĸ¹": 467,
      "æĮ": 468,
      "ãĥ¥": 469,
      "ãĥĭ": 470,
      "åĳ": 471,
      "åŃĲ": 472,
      "èĩª": 473,
      "èĢħ": 474,
      "ãĥĸ": 475,
      "ãĤĪãģĨ": 476,
      "ãĤ¨": 477,
      "å¾Į": 478,
      "ãģĿãģ®": 479,
      "æīĭ": 480,
      "éł": 481,
      "æµ": 482,
      "åľ°": 483,
      "å£": 484,
      "çĻº": 485,
      "éļ": 486,
      "ç¬": 487,
      "ãĥł": 488,
      "ãģ°": 489,
      "ãĥĵ": 490,
      "çļĦ": 491,
      "è²": 492,
      "å¸Ĥ": 493,
      "ãĥģ": 494,
      "ç¤¾": 495,
      "è³": 496,
      "åħ¥": 497,
      "æĹ¥æľ¬": 498,
      "æ²": 499,
      "æ¥Ń": 500,
      "ãĤº": 501,
      "é«": 502,
      "çĲ": 503,
      "æ´": 504,
      "ãĥĬ": 505,
      "å®ļ": 506,
      "è¦ĭ": 507,
      "ä»£": 508,
      "çī©": 509,
      "ãģĺ": 510,
      "ãĥ¼ãĥ«": 511,
      "è¿": 512,
      "é«ĺ": 513,
      "ãĥĥãĤ¯": 514,
      "çŁ": 515,
      "åīį": 516,
      "ãģ§ãģį": 517,
      "ãģªãģ©": 518,
      "æĬ": 519,
      "éĿ": 520,
      "é¡": 521,
      "ãģĵãģ®": 522,
      "æĢĿ": 523,
      "æĪĲ": 524,
      "ãģĶ": 525,
      "ç¬¬": 526,
      "ãĥŁ": 527,
      "éĸĭ": 528,
      "çĽ®": 529,
      "æİ": 530,
      "åĭķ": 531,
      "ãĥĳ": 532,
      "æ¸": 533,
      "åĲĮ": 534,
      "ãĥĥãĥĪ": 535,
      "åĲį": 536,
      "ä¾": 537,
      "ãĥ§": 538,
      "åŁ": 539,
      "ãĤ§": 540,
      "éķ": 541,
      "éķ·": 542,
      "ãģŁãĤģ": 543,
      "æ°Ĺ": 544,
      "éĸ¢": 545,
      "æĿ±": 546,
      "èŃ": 547,
      "ãĤ¹ãĥĪ": 548,
      "æĸ°": 549,
      "æĪ¦": 550,
      "æ±": 551,
      "åĨħ": 552,
      "ãĤ»": 553,
      "æĢ§": 554,
      "æ©": 555,
      "ç«ĭ": 556,
      "è£": 557,
      "ç¥": 558,
      "å½ĵ": 559,
      "çĶ°": 560,
      "æīĢ": 561,
      "ç¾": 562,
      "ä¸ĭ": 563,
      "ä½ĵ": 564,
      "éĢļ": 565,
      "èĪ": 566,
      "åĽŀ": 567,
      "å®¶": 568,
      "å±±": 569,
      "ãĤį": 570,
      "ãĥ³ãĤ°": 571,
      "éģĵ": 572,
      "èī": 573,
      "æ§": 574,
      "ç©": 575,
      "ãģļ": 576,
      "åİ": 577,
      "çı": 578,
      "ãĤĤãģ®": 579,
      "çĲĨ": 580,
      "çĶ»": 581,
      "ä¹": 582,
      "ãĥ¼ãĥĪ": 583,
      "ãĤ¿ãĥ¼": 584,
      "ãĥªãĥ¼": 585,
      "ç¶": 586,
      "èĥ": 587,
      "æľĢ": 588,
      "åħ¨": 589,
      "å®Ł": 590,
      "è¨Ģ": 591,
      "åĢ": 592,
      "çľĮ": 593,
      "å¤ļ": 594,
      "éģ¸": 595,
      "å¯¾": 596,
      "çŃ": 597,
      "ãĥĢ": 598,
      "çı¾": 599,
      "ãģ¾ãģ§": 600,
      "æı": 601,
      "å§": 602,
      "æ¼": 603,
      "ä»¥": 604,
      "æĸĩ": 605,
      "å¥³": 606,
      "å¤ĸ": 607,
      "ãĥ³ãĥĪ": 608,
      "çĦ": 609,
      "å°ı": 610,
      "é£": 611,
      "ä½¿": 612,
      "æŀ": 613,
      "æ¨": 614,
      "è¨Ń": 615,
      "ç¨": 616,
      "æĥ": 617,
      "è¦ģ": 618,
      "æł¡": 619,
      "åĬĽ": 620,
      "æ³ķ": 621,
      "åĮĸ": 622,
      "è¨ĺ": 623,
      "èº": 624,
      "åĵģ": 625,
      "éĢ£": 626,
      "ãĥ¢": 627,
      "ãĥĻ": 628,
      "åº¦": 629,
      "ãĥı": 630,
      "ä¸»": 631,
      "ä¸ĸ": 632,
      "æĿ¥": 633,
      "æĽ¸": 634,
      "æ©Ł": 635,
      "ãĤ¬": 636,
      "ãĥĿ": 637,
      "åĤ": 638,
      "ãĥ¼ãĥī": 639,
      "é§": 640,
      "è¡¨": 641,
      "åķ": 642,
      "æĺİ": 643,
      "ãĥ¼ãĥł": 644,
      "è»Ĭ": 645,
      "åĴ": 646,
      "ãĥķãĤ": 647,
      "åħ¬": 648,
      "ãĥį": 649,
      "å·Ŀ": 650,
      "çĤ": 651,
      "éĩĳ": 652,
      "æ¯": 653,
      "ãģ¸": 654,
      "ãģ§ãĤĤ": 655,
      "ãĤ½": 656,
      "ãģ¾ãģŁ": 657,
      "åıĸ": 658,
      "ä»Ĭ": 659,
      "æķ°": 660,
      "ãĤĩ": 661,
      "ãĤ±": 662,
      "æ®": 663,
      "ãĤ¤ãĥ³": 664,
      "åĪĿ": 665,
      "ãĤ·ãĥ§": 666,
      "è¾": 667,
      "èģ": 668,
      "..": 669,
      "èº«": 670,
      "åľ¨": 671,
      "æķĻ": 672,
      "ãģĿãĤĮ": 673,
      "ãĥ³ãĥī": 674,
      "æľŁ": 675,
      "ãĥ¯": 676,
      "çİ": 677,
      "è©±": 678,
      "åĴĮ": 679,
      "ãģ³": 680,
      "èĥ½": 681,
      "éĩİ": 682,
      "éŁ": 683,
      "çŁ¥": 684,
      "ãģŃ": 685,
      "æĮģ": 686,
      "èĤ": 687,
      "ç·ļ": 688,
      "å³": 689,
      "æ¬": 690,
      "è«": 691,
      "äº¬": 692,
      "ãģĵãĤĮ": 693,
      "å¹³": 694,
      "ãĥľ": 695,
      "åĵ¡": 696,
      "å»": 697,
      "ãģ»": 698,
      "ãĥ¼ãĤ¸": 699,
      "æĭ": 700,
      "çĶº": 701,
      "æ§ĺ": 702,
      "åĬł": 703,
      "è§": 704,
      "æ´»": 705,
      "ç½": 706,
      "âĢ": 707,
      "åıĹ": 708,
      "éĢģ": 709,
      "æ¥½": 710,
      "èµ": 711,
      "æĦı": 712,
      "æ¼Ķ": 713,
      "å²": 714,
      "åĪ©": 715,
      "åİŁ": 716,
      "å¤ī": 717,
      "å¼ı": 718,
      "ãĥ¼ãĤ¹": 719,
      "ãĥ©ãĤ¤": 720,
      "çī¹": 721,
      "è¼": 722,
      "ãģ¹": 723,
      "çł": 724,
      "çµĦ": 725,
      "çķª": 726,
      "åģ": 727,
      "ãĥİ": 728,
      "èĢĥ": 729,
      "èĦ": 730,
      "å³¶": 731,
      "èªŀ": 732,
      "åĸ": 733,
      "éħ": 734,
      "ä¸į": 735,
      "çµĮ": 736,
      "ãģķãĤĵ": 737,
      "ç¥ŀ": 738,
      "æĦŁ": 739,
      "ãģĭãģ£": 740,
      "åĦ": 741,
      "å£²": 742,
      "ãĥĽ": 743,
      "ãĥļ": 744,
      "å¿ĥ": 745,
      "ãĢħ": 746,
      "æµ·": 747,
      "è¶": 748,
      "æŁ": 749,
      "åł´åĲĪ": 750,
      "é§ħ": 751,
      "æĽ²": 752,
      "çµĲ": 753,
      "ãĥĦ": 754,
      "åĮĹ": 755,
      "ãģĴ": 756,
      "ãĤ¶": 757,
      "åł±": 758,
      "çĬ": 759,
      "å¤§åŃ¦": 760,
      "çĿ": 761,
      "æĶ¾": 762,
      "ä¸ī": 763,
      "æº": 764,
      "éĺ": 765,
      "ãģĹãģ¾": 766,
      "||": 767,
      "æŃ£": 768,
      "ç¶ļ": 769,
      "åıĤ": 770,
      "ãĤĪãĤĬ": 771,
      "è¥": 772,
      "ãģĹãĤĩ": 773,
      "æ°´": 774,
      "çĦ¡": 775,
      "æĿĳ": 776,
      "éĿ¢": 777,
      "åĥ": 778,
      "ãĥĶ": 779,
      "ä½į": 780,
      "åħĥ": 781,
      "åı·": 782,
      "é¦": 783,
      "ãĥĨãĤ£": 784,
      "ä»ĺ": 785,
      "éļĽ": 786,
      "åŃ¦æł¡": 787,
      "åĪ¶": 788,
      "è·": 789,
      "ãĤ®": 790,
      "åĮº": 791,
      "ãĥĥãĥĹ": 792,
      "éĽ»": 793,
      "åĭĻ": 794,
      "æ²»": 795,
      "åºĹ": 796,
      "ãĤ·ãĥ§ãĥ³": 797,
      "çĤ¹": 798,
      "èĭ": 799,
      "ãĤ¤ãĥĪ": 800,
      "èĳ": 801,
      "çĽ¸": 802,
      "å¢": 803,
      "ä¿¡": 804,
      "ä¿Ŀ": 805,
      "æħ": 806,
      "ãģłãģĳ": 807,
      "æ³¨": 808,
      "ç§ģ": 809,
      "å®ī": 810,
      "é¤": 811,
      "ãĤ²": 812,
      "ãĥĹãĥŃ": 813,
      "å°ĳ": 814,
      "éĥ½": 815,
      "éĮ": 816,
      "è¿ĳ": 817,
      "æĥħ": 818,
      "éĽĨ": 819,
      "çĹ": 820,
      "æĴ": 821,
      "çķĮ": 822,
      "è»į": 823,
      "ãĥĩãĤ£": 824,
      "æĺł": 825,
      "è¥¿": 826,
      "ç´Ħ": 827,
      "åı¯": 828,
      "ãĥĨãĥ¬": 829,
      "ç½®": 830,
      "èī¯": 831,
      "èĩªåĪĨ": 832,
      "ãĥ´": 833,
      "ãĤ¹ãĤ¿": 834,
      "ãģŁãĤĬ": 835,
      "çŃī": 836,
      "ãĤĥ": 837,
      "è§£": 838,
      "èĬ": 839,
      "ãĥ©ãĥ³": 840,
      "æĸĻ": 841,
      "åķı": 842,
      "éģĭ": 843,
      "æĶ¿": 844,
      "åĭĿ": 845,
      "éĩį": 846,
      "ç¾İ": 847,
      "æ±º": 848,
      "æľī": 849,
      "æĤ": 850,
      "ç®": 851,
      "ãĤ´": 852,
      "æ°ĳ": 853,
      "ãĥªãĤ¢": 854,
      "ä»ĸ": 855,
      "æĮĩ": 856,
      "åħ±": 857,
      "ãģĦãģŁ": 858,
      "å½¹": 859,
      "ãĥķãĤ¡": 860,
      "ãĤĢ": 861,
      "å¾Ĺ": 862,
      "å¿ħ": 863,
      "å§ĭ": 864,
      "ãĥªãĥ³": 865,
      "äºĮ": 866,
      "å½¢": 867,
      "ãģĹãģĭ": 868,
      "éĮ²": 869,
      "ä½ķ": 870,
      "æģ": 871,
      "åĦª": 872,
      "ãĥĨãĥ¬ãĥĵ": 873,
      "åĲĳ": 874,
      "ç·¨": 875,
      "æ¬¡": 876,
      "ãģ£ãģ¦": 877,
      "æľ¨": 878,
      "ãģ¤ãģĦ": 879,
      "åħĪ": 880,
      "é£Ł": 881,
      "åı£": 882,
      "æŀľ": 883,
      "çĶ£": 884,
      "éĻ¢": 885,
      "æĿ±äº¬": 886,
      "é¡Į": 887,
      "éŁ³": 888,
      "èŃ°": 889,
      "ãģıãģł": 890,
      "çĻ»": 891,
      "åĪ¥": 892,
      "è±": 893,
      "ç³": 894,
      "ãģıãģłãģķ": 895,
      "ãĥ¼ãĤ¯": 896,
      "ãĤŃãĥ£": 897,
      "çĶ·": 898,
      "çĬ¶": 899,
      "å·¥": 900,
      "ç¢": 901,
      "ç©º": 902,
      "äº¤": 903,
      "åŃĺ": 904,
      "ãĤ¢ãĥ«": 905,
      "çµĤ": 906,
      "éĢ²": 907,
      "äººçī©": 908,
      "çľŁ": 909,
      "å¤©": 910,
      "ãģĿãģĨ": 911,
      "ç¯": 912,
      "ãģ¤ãģĦãģ¦": 913,
      "ãĥ¥ãĥ¼": 914,
      "ç§ĳ": 915,
      "èĹ": 916,
      "éī": 917,
      "åıĹãģĳ": 918,
      "è¡ĵ": 919,
      "åįĹ": 920,
      "é¨": 921,
      "èªį": 922,
      "ç¦": 923,
      "èĢĥãģĪ": 924,
      "éģ¸æīĭ": 925,
      "å¸¸": 926,
      "åı°": 927,
      "æĶ¾éĢģ": 928,
      "ãĥ¤": 929,
      "çīĪ": 930,
      "å£«": 931,
      "èª¿": 932,
      "ãĤ¸ãĥ£": 933,
      "å±ĭ": 934,
      "ãĤĵãģª": 935,
      "å½¼": 936,
      "åŀ": 937,
      "ä¼ļç¤¾": 938,
      "åĳ³": 939,
      "åĽ£": 940,
      "çİĭ": 941,
      "å¼ķ": 942,
      "ç¢º": 943,
      "å¼·": 944,
      "äºĪ": 945,
      "åºĥ": 946,
      "ç¿": 947,
      "è¨Ī": 948,
      "æ¤": 949,
      "æĻĤéĸĵ": 950,
      "ãĥªãĤ«": 951,
      "ãĥ¼ãĤº": 952,
      "ãĤĪãĤĭ": 953,
      "æł¼": 954,
      "å¿ľ": 955,
      "åĪĩ": 956,
      "èª¬": 957,
      "æµģ": 958,
      "åıİ": 959,
      "åŁº": 960,
      "æŃ´": 961,
      "ãģŁãģ¡": 962,
      "èĤ²": 963,
      "ãĥķãĤ£": 964,
      "è³ŀ": 965,
      "ä¸ĸçķĮ": 966,
      "åı¯èĥ½": 967,
      "åı²": 968,
      "é¤¨": 969,
      "ãĥ¼ãĥ³": 970,
      "ãģ²": 971,
      "æĶ¹": 972,
      "æĥħåł±": 973,
      "æĶ¯": 974,
      "ãĤ¹ãĥĨ": 975,
      "éħį": 976,
      "å¿ħè¦ģ": 977,
      "çĽ´": 978,
      "éīĦ": 979,
      "ä»ķ": 980,
      "æ¶": 981,
      "å¦": 982,
      "è£½": 983,
      "åĪ©çĶ¨": 984,
      "ãģ¶": 985,
      "ä»»": 986,
      "å·ŀ": 987,
      "ç³»": 988,
      "è¾¼": 989,
      "ä¼Ŀ": 990,
      "çĪ": 991,
      "çłĶ": 992,
      "ä½ľåĵģ": 993,
      "ç±": 994,
      "æ¡": 995,
      "å»º": 996,
      "ãĢľ": 997,
      "åĸ¶": 998,
      "ãĤ·ãĥ£": 999,
      "ç¤º": 1000,
      "æĺŃ": 1001,
      "ãģĹãģ¦": 1002,
      "æĦĽ": 1003,
      "èĦļ": 1004,
      "æĸ½": 1005,
      "æŃĮ": 1006,
      "åĳ½": 1007,
      "éģİ": 1008,
      "çĶ±": 1009,
      "åŀĭ": 1010,
      "ç¨®": 1011,
      "è·¯": 1012,
      "ãĥ»ãĥ»": 1013,
      "è»¢": 1014,
      "è¬": 1015,
      "çģ": 1016,
      "åı¤": 1017,
      "çĿĢ": 1018,
      "ä»ĭ": 1019,
      "æ·": 1020,
      "ä½¿çĶ¨": 1021,
      "éĻĲ": 1022,
      "ãĥĴ": 1023,
      "ç¾©": 1024,
      "ãĤ¢ãĥ¡": 1025,
      "ç¸": 1026,
      "å²¡": 1027,
      "å¡": 1028,
      "æĬĢ": 1029,
      "ãĥ¼ãĥĹ": 1030,
      "æľĿ": 1031,
      "æŃ¢": 1032,
      "æĺłçĶ»": 1033,
      "å¤ª": 1034,
      "çĭ": 1035,
      "æ¨©": 1036,
      "ãĥķãĤ©": 1037,
      "éģĶ": 1038,
      "äºķ": 1039,
      "åĨį": 1040,
      "éĢł": 1041,
      "åŁŁ": 1042,
      "åĤĻ": 1043,
      "ãĥģãĥ£": 1044,
      "åľŁ": 1045,
      "ãĤ¢ãĥ¡ãĥªãĤ«": 1046,
      "èī²": 1047,
      "ä¸ĩ": 1048,
      "åľĴ": 1049,
      "çŁ³": 1050,
      "çı¾åľ¨": 1051,
      "éĸĢ": 1052,
      "æĺŃåĴĮ": 1053,
      "ãĥ¦": 1054,
      "åĨĨ": 1055,
      "ä¾Ľ": 1056,
      "ç©¶": 1057,
      "æĻĤä»£": 1058,
      "å´": 1059,
      "ä½ı": 1060,
      "æļ": 1061,
      "å¥½": 1062,
      "ç·ı": 1063,
      "ãģĲ": 1064,
      "èµ·": 1065,
      "åħī": 1066,
      "ãģĸ": 1067,
      "ãģ©ãģĨ": 1068,
      "èı": 1069,
      "ç§»": 1070,
      "å¤ļãģı": 1071,
      "è©¦": 1072,
      "ãĤ¤ãĥ«": 1073,
      "éŃ": 1074,
      "å®¹": 1075,
      "é¨ĵ": 1076,
      "¢¨": 1077,
      "ä»¶": 1078,
      "ãģªãģĮ": 1079,
      "å±Ģ": 1080,
      "æŁ»": 1081,
      "æ£": 1082,
      "å®¢": 1083,
      "èĹ¤": 1084,
      "çłĶç©¶": 1085,
      "éļĬ": 1086,
      "åķĨ": 1087,
      "ãĤ«ãĥ¼": 1088,
      "å±ŀ": 1089,
      "ç¹": 1090,
      "ãģĵãĤį": 1091,
      "åĩºèº«": 1092,
      "ãĤ¯ãĥ©": 1093,
      "è³ĩ": 1094,
      "æ§ĭ": 1095,
      "æĿ¾": 1096,
      "éĥİ": 1097,
      "ç¦ı": 1098,
      "æĽ´": 1099,
      "èģŀ": 1100,
      "ãĥªãĥ³ãĤ¯": 1101,
      "å®®": 1102,
      "æıĲ": 1103,
      "ãģĭãģĳ": 1104,
      "è¼ī": 1105,
      "ãģıãĤĮ": 1106,
      "ãģķãĤĮ": 1107,
      "ãģĦãģŁãģł": 1108,
      "çĲĥ": 1109,
      "å©": 1110,
      "æŃ»": 1111,
      "ãĥ³ãĤ¹": 1112,
      "èĳī": 1113,
      "ãĤµãĤ¤ãĥĪ": 1114,
      "ãģĹãģĭãģĹ": 1115,
      "åĳ¼": 1116,
      "è¦ª": 1117,
      "éĬ": 1118,
      "åŁİ": 1119,
      "ãĥĹãĥ¬": 1120,
      "éģķ": 1121,
      "æĹı": 1122,
      "åĻ": 1123,
      "åĪ¤": 1124,
      "éłħ": 1125,
      "è³ª": 1126,
      "ãģİ": 1127,
      "ãĤ·ãĥ¥": 1128,
      "ä¾¡": 1129,
      "å£°": 1130,
      "æĴĥ": 1131,
      "åıĸãĤĬ": 1132,
      "çĻ½": 1133,
      "ãĥªãĤ¹": 1134,
      "å¸«": 1135,
      "ç´ł": 1136,
      "åĢĭ": 1137,
      "åĤ¬": 1138,
      "è¦³": 1139,
      "ä¸¡": 1140,
      "çµ±": 1141,
      "...": 1142,
      "å½±": 1143,
      "ãĥ¼ãĥŀ": 1144,
      "æħĭ": 1145,
      "ä¼ģ": 1146,
      "ç®¡": 1147,
      "ç§°": 1148,
      "éĸ¢éĢ£": 1149,
      "ãĤ¿ãĤ¤": 1150,
      "è£ħ": 1151,
      "ãģ£ãģ¨": 1152,
      "å¹³æĪĲ": 1153,
      "å¤§ãģį": 1154,
      "éĥ¡": 1155,
      "é¦¬": 1156,
      "èĲ": 1157,
      "åĳ¨": 1158,
      "é¢¨": 1159,
      "èĸ": 1160,
      "ä¿Ĥ": 1161,
      "é¡ŀ": 1162,
      "çĽ£": 1163,
      "èªŃ": 1164,
      "è¶³": 1165,
      "åºľ": 1166,
      "éľ": 1167,
      "çĮ": 1168,
      "ä¹Ĺ": 1169,
      "åįĺ": 1170,
      "åĬ¹": 1171,
      "èĦļæ³¨": 1172,
      "æĲ": 1173,
      "èģ·": 1174,
      "åįĶ": 1175,
      "åĲĦ": 1176,
      "ç²": 1177,
      "ãģªãģĮãĤī": 1178,
      "æĪ¸": 1179,
      "åĲĮãģĺ": 1180,
      "æŃ¦": 1181,
      "ãĤĨ": 1182,
      "èĭ±": 1183,
      "åįĬ": 1184,
      "å¤ĸéĥ¨": 1185,
      "å¢Ĺ": 1186,
      "åŃĹ": 1187,
      "æĦŁãģĺ": 1188,
      "è«ĸ": 1189,
      "ãĤµãĥ¼ãĥ": 1190,
      "ãĥīãĥ©": 1191,
      "èŃ·": 1192,
      "ãĤ¼": 1193,
      "éĤ": 1194,
      "åĮ»": 1195,
      "ãĥĥãĥī": 1196,
      "ãģ¨ãģĵãĤį": 1197,
      "å¥³æĢ§": 1198,
      "æĥ³": 1199,
      "æĬķ": 1200,
      "éĺª": 1201,
      "åıį": 1202,
      "å®³": 1203,
      "æ®ĭ": 1204,
      "ãģ¨ãģį": 1205,
      "è°": 1206,
      "è°·": 1207,
      "ãĤ¸ãĤ§": 1208,
      "å®ĺ": 1209,
      "ç´Ģ": 1210,
      "æ¤ľ": 1211,
      "ãĤıãĤĮ": 1212,
      "æ¹": 1213,
      "ãĤ°ãĥ©": 1214,
      "æĿ¡": 1215,
      "æ©ĭ": 1216,
      "ãĥ¼ãĤ·ãĥ§ãĥ³": 1217,
      "åįģ": 1218,
      "ãĥĥãĤ¯ãĤ¹": 1219,
      "åıĤåĬł": 1220,
      "éłŃ": 1221,
      "ãģ¡ãĤĥ": 1222,
      "æİ¥": 1223,
      "é»": 1224,
      "åģ´": 1225,
      "æŃ³": 1226,
      "åħ¥ãĤĮ": 1227,
      "å´İ": 1228,
      "å®¤": 1229,
      "éĻį": 1230,
      "èį": 1231,
      "æ´»åĭķ": 1232,
      "ãĤ³ãĥ³": 1233,
      "çĻºå£²": 1234,
      "ãĥĺ": 1235,
      "ãĤ¦ãĤ§": 1236,
      "ãģªãĤī": 1237,
      "ä»¥ä¸Ĭ": 1238,
      "çķªçµĦ": 1239,
      "ä¿®": 1240,
      "çĹħ": 1241,
      "è¦ı": 1242,
      "éĩı": 1243,
      "å¤«": 1244,
      "åķıé¡Į": 1245,
      "éĸ¢ä¿Ĥ": 1246,
      "ãģĤãĤĭ": 1247,
      "å°Ĥ": 1248,
      "å¿µ": 1249,
      "ãĤ¡": 1250,
      "åĩºæĿ¥": 1251,
      "è¦§": 1252,
      "æĭħ": 1253,
      "ãĤ²ãĥ¼ãĥł": 1254,
      "ä¾ĭ": 1255,
      "å¼µ": 1256,
      "ãĥ³ãĥĨ": 1257,
      "ãĤ¸ãĥ§": 1258,
      "åĻ¨": 1259,
      "å®Į": 1260,
      "çĻ»åł´": 1261,
      "èĲ½": 1262,
      "éĿŀ": 1263,
      "ãĥķãĤ§": 1264,
      "ãĤ¢ãĤ¤": 1265,
      "æ¸Ī": 1266,
      "å±ķ": 1267,
      "çĦ¶": 1268,
      "ãĥĲãĤ¹": 1269,
      "çĿ£": 1270,
      "åĿ": 1271,
      "ãĥ¼ãĥĬ": 1272,
      "åĥı": 1273,
      "åĳĬ": 1274,
      "éĺ²": 1275,
      "ãĥĸãĥ©": 1276,
      "è²·": 1277,
      "å¯º": 1278,
      "çĨ": 1279,
      "çķ°": 1280,
      "åħµ": 1281,
      "ãģ¾ãĤĮ": 1282,
      "éĸĭåĤ¬": 1283,
      "åĨĻ": 1284,
      "ãĥ©ãĥ¼": 1285,
      "è¡ĮãĤıãĤĮ": 1286,
      "éĽ¢": 1287,
      "æ¶Ī": 1288,
      "æĤª": 1289,
      "ç¨ĭ": 1290,
      "ãĥ³ãĥĢ": 1291,
      "ãģĳãģ©": 1292,
      "æ¥½ãģĹ": 1293,
      "äºĨ": 1294,
      "ä½Ĳ": 1295,
      "ç´¹": 1296,
      "ãģ»ãģ©": 1297,
      "åº§": 1298,
      "èĬ±": 1299,
      "éĢĢ": 1300,
      "åħ¸": 1301,
      "ãģĭãĤĬ": 1302,
      "çĻĤ": 1303,
      "æĸŃ": 1304,
      "ç´¹ä»ĭ": 1305,
      "åŃĺåľ¨": 1306,
      "ãĤªãĥ³": 1307,
      "åĩºæ¼Ķ": 1308,
      "ãĥ«ãĥĪ": 1309,
      "åįĥ": 1310,
      "æĽľ": 1311,
      "æºĸ": 1312,
      "æĺŁ": 1313,
      "ãģ¤ãģĳ": 1314,
      "ãĤıãģĽ": 1315,
      "çª": 1316,
      "æ¯į": 1317,
      "ãģĿãģ®å¾Į": 1318,
      "åĲ«": 1319,
      "å°İ": 1320,
      "Ĳãĥ¼": 1321,
      "ãģ®ãģ¿": 1322,
      "æłª": 1323,
      "æį": 1324,
      "èħ": 1325,
      "ãģ¥": 1326,
      "æ±Ĥ": 1327,
      "æ±Ł": 1328,
      "æ»": 1329,
      "æĹ©": 1330,
      "å¾©": 1331,
      "ãģĿãģĹãģ¦": 1332,
      "è±¡": 1333,
      "åĽ³": 1334,
      "ãģ¨ãĤĤ": 1335,
      "è¿½": 1336,
      "éĢŁ": 1337,
      "è«ĩ": 1338,
      "ä¸İ": 1339,
      "æŃ©": 1340,
      "ãģĳãĤĮ": 1341,
      "åıĭ": 1342,
      "å©ļ": 1343,
      "ãĥĸãĥ«": 1344,
      "æ¯Ķ": 1345,
      "æ®µ": 1346,
      "ç´ļ": 1347,
      "ãĥŀãĥ³": 1348,
      "çĴ": 1349,
      "åıĬ": 1350,
      "æīĵ": 1351,
      "æ¯İ": 1352,
      "ä¸ĬãģĴ": 1353,
      "ç´°": 1354,
      "æĢ¥": 1355,
      "ãĤ»ãĥ³": 1356,
      "ãĥªãĥ¼ãĤº": 1357,
      "éłħçĽ®": 1358,
      "å¾ħ": 1359,
      "ãĥ¨": 1360,
      "ä»ķäºĭ": 1361,
      "âĢ»": 1362,
      "éīĦéģĵ": 1363,
      "è¿Ķ": 1364,
      "çĽ£çĿ£": 1365,
      "åİ»": 1366,
      "ãĤ¯ãĥª": 1367,
      "ãĥ³ãĥĹ": 1368,
      "åĬ©": 1369,
      "ãĤ¢ãĥĭ": 1370,
      "æľĽ": 1371,
      "ç±³": 1372,
      "åĲī": 1373,
      "å¢ĥ": 1374,
      "éĽ£": 1375,
      "è¨¼": 1376,
      "ãģ¾ãĤĬ": 1377,
      "ç¶Ļ": 1378,
      "éĸĭå§ĭ": 1379,
      "éĿĴ": 1380,
      "çĪ¶": 1381,
      "ãĤĤãĤī": 1382,
      "çİĩ": 1383,
      "ãĥ¬ãĤ¹": 1384,
      "èŃĺ": 1385,
      "è©ķ": 1386,
      "ãģ«ãģ¦": 1387,
      "å¸°": 1388,
      "ä»£è¡¨": 1389,
      "ãģªãĤĵ": 1390,
      "åĬĩ": 1391,
      "ãĥ¼ãĥĦ": 1392,
      "ç«¶": 1393,
      "æĿĲ": 1394,
      "ãĥ³ãĤ¸": 1395,
      "è¦ĸ": 1396,
      "ĵãĤ¹": 1397,
      "æŃ´åı²": 1398,
      "ãĥ¼ãĤ¿": 1399,
      "è²©": 1400,
      "æĮģãģ¡": 1401,
      "åľ°åŁŁ": 1402,
      "ãĤµãĥ¼ãĥĵãĤ¹": 1403,
      "åĥį": 1404,
      "æ²¢": 1405,
      "ãģŁãģł": 1406,
      "éłĺ": 1407,
      "ä¹ħ": 1408,
      "æºĢ": 1409,
      "éŁ³æ¥½": 1410,
      "ãĤ¢ãĥ«ãĥĲ": 1411,
      "æĸ¹æ³ķ": 1412,
      "ãĥ¼ãĥ©": 1413,
      "æ¿": 1414,
      "éĢ±": 1415,
      "æ®º": 1416,
      "æ½": 1417,
      "ä»ĺãģĳ": 1418,
      "çĭ¬": 1419,
      "å¤§éĺª": 1420,
      "ç¿Ĵ": 1421,
      "ãĤ·ãĤ¢": 1422,
      "é¡ĺ": 1423,
      "ãģŀ": 1424,
      "è¡Ĩ": 1425,
      "ãģµ": 1426,
      "å¤±": 1427,
      "åı¸": 1428,
      "ãĥ³ãĥĩ": 1429,
      "ä»¥ä¸ĭ": 1430,
      "ãĤªãĥª": 1431,
      "èĳĹ": 1432,
      "åĲĪãĤıãģĽ": 1433,
      "ç¤¾ä¼ļ": 1434,
      "éĻ¸": 1435,
      "å¤ľ": 1436,
      "æĶ»": 1437,
      "äºĭæ¥Ń": 1438,
      "çį": 1439,
      "ãģķãĤī": 1440,
      "ãģĬãĤĪ": 1441,
      "ãĤµãĤ¤": 1442,
      "ãĤµãĥ¼": 1443,
      "çĴ°": 1444,
      "çĶŁæ´»": 1445,
      "åĽĽ": 1446,
      "èĮ": 1447,
      "æķ´": 1448,
      "çĸ": 1449,
      "ãĥĸãĥŃ": 1450,
      "ãģ¡ãĤī": 1451,
      "æķĻèĤ²": 1452,
      "éŁ¿": 1453,
      "âĨ": 1454,
      "æĮĻ": 1455,
      "åħļ": 1456,
      "çħ": 1457,
      "ãĤ¯ãĥĪ": 1458,
      "æľ«": 1459,
      "ãĥ¼ãĥª": 1460,
      "éĸĭçĻº": 1461,
      "éłĥ": 1462,
      "ãĤ°ãĥ«": 1463,
      "ãĤ·ãĥªãĥ¼ãĤº": 1464,
      "ãģĵãģĨ": 1465,
      "åĪĹ": 1466,
      "æ¦": 1467,
      "ãģĵãģĵ": 1468,
      "ãĥŁãĥ¥": 1469,
      "ãĥ©ãĥ³ãĤ¹": 1470,
      "çĶ³": 1471,
      "èµ°": 1472,
      "å·»": 1473,
      "éĻ¤": 1474,
      "ãĤ¹ãĥļ": 1475,
      "ãĥĥãĥģ": 1476,
      "æ´¥": 1477,
      "ãĤ·ãĥ³ãĤ°": 1478,
      "çµĲæŀľ": 1479,
      "å¤īæĽ´": 1480,
      "ãģĹãĤĮ": 1481,
      "èĪ¬": 1482,
      "çĻºè¡¨": 1483,
      "æ¨ª": 1484,
      "è¡Ľ": 1485,
      "è²»": 1486,
      "èĪĪ": 1487,
      "äºī": 1488,
      "ãĥ³ãĤ¿": 1489,
      "åī²": 1490,
      "èĪ¹": 1491,
      "å»ĥ": 1492,
      "ãĥĭãĥ¥": 1493,
      "ä¼ģæ¥Ń": 1494,
      "æ²³": 1495,
      "å¤§ä¼ļ": 1496,
      "ãĤ¤ãĤ¹": 1497,
      "è¢": 1498,
      "æĹ§": 1499,
      "æĹħ": 1500,
      "å®Ī": 1501,
      "æ°ı": 1502,
      "ãĤ©": 1503,
      "åº«": 1504,
      "æĸĩåĮĸ": 1505,
      "çģ«": 1506,
      "ãĥĬãĥ«": 1507,
      "ãĥģãĥ¼ãĥł": 1508,
      "æı´": 1509,
      "æ´¾": 1510,
      "éłĤ": 1511,
      "æľª": 1512,
      "æ¸¯": 1513,
      "æ¡Ī": 1514,
      "æ¸¡": 1515,
      "ç¯ī": 1516,
      "èĬ¸": 1517,
      "ãĤ«ãĥ«": 1518,
      "ãģĤãĤĬ": 1519,
      "ä¼ĳ": 1520,
      "éº": 1521,
      "è¬Ľ": 1522,
      "ãĥ¼ãĥĨ": 1523,
      "ãĥķãĥĪ": 1524,
      "ãģĿãģĵ": 1525,
      "æĺ¥": 1526,
      "ä¸Ģéĥ¨": 1527,
      "ãĥĻãĥ«": 1528,
      "ãĥĲãĥ¼": 1529,
      "åĢ¤": 1530,
      "å·®": 1531,
      "å§Ķ": 1532,
      "å¾¡": 1533,
      "å¸¯": 1534,
      "ä¾¿": 1535,
      "é£Ľ": 1536,
      "æ£®": 1537,
      "ãĥ´ãĤ¡": 1538,
      "ç¢ºèªį": 1539,
      "åĨħå®¹": 1540,
      "åĨĻçľŁ": 1541,
      "å½ĵæĻĤ": 1542,
      "å°Ĩ": 1543,
      "ãĥ³ãĥĶ": 1544,
      "å¥½ãģį": 1545,
      "å¤ļãģıãģ®": 1546,
      "ãĤ¦ãĤ£": 1547,
      "ä¸ĢèĪ¬": 1548,
      "ãĥĭãĤ¢": 1549,
      "åħ«": 1550,
      "éģ©": 1551,
      "åł´æīĢ": 1552,
      "èī¦": 1553,
      "å¹´çĶŁ": 1554,
      "å¨": 1555,
      "æ´ĭ": 1556,
      "ãĤ¹ãĥĿ": 1557,
      "ãĤ¸ãĤª": 1558,
      "åģ¥": 1559,
      "ãĤ¯ãĤ¿ãĥ¼": 1560,
      "ãĥģãĤ§": 1561,
      "ãģĶãģĸ": 1562,
      "è²ł": 1563,
      "åīµ": 1564,
      "èŃ¦": 1565,
      "ãĥĪãĥ©": 1566,
      "ãĤ¢ãĥ«ãĥĲãĥł": 1567,
      "è¶Ĭ": 1568,
      "çľģ": 1569,
      "é»Ĵ": 1570,
      "æķĹ": 1571,
      "ä½İ": 1572,
      "èĪŀ": 1573,
      "æµľ": 1574,
      "æł¹": 1575,
      "ãĤ¯ãĥŃ": 1576,
      "æİ¢": 1577,
      "ãģĦãģ¤": 1578,
      "ãĥ´ãĤ£": 1579,
      "å¯Į": 1580,
      "çĬ¶æħĭ": 1581,
      "ãģĨãģ¡": 1582,
      "æİĪ": 1583,
      "ãĥĹãĥª": 1584,
      "èĸ¬": 1585,
      "ãĤ¢ãĥĭãĥ¡": 1586,
      "ãĥ³ãĥģ": 1587,
      "è©ŀ": 1588,
      "åĽ½éļĽ": 1589,
      "æĻ®": 1590,
      "æłªå¼ı": 1591,
      "éĹ": 1592,
      "æ¦Ĥ": 1593,
      "ãģĭãģª": 1594,
      "éļİ": 1595,
      "é³": 1596,
      "ãģķãĤīãģ«": 1597,
      "ãģ¼": 1598,
      "è¾º": 1599,
      "èµ¤": 1600,
      "ç¬ĳ": 1601,
      "éĬĢ": 1602,
      "èĩªèº«": 1603,
      "å¼ķãģį": 1604,
      "ãĤıãģĭ": 1605,
      "ãĤģãģ¦": 1606,
      "éŃĶ": 1607,
      "çĮ®": 1608,
      "ãģĬãĤĪãģ³": 1609,
      "è¦ļ": 1610,
      "æĨ": 1611,
      "æ³¢": 1612,
      "ç©į": 1613,
      "æĺİæ²»": 1614,
      "æĴ®": 1615,
      "ãģıãĤī": 1616,
      "ç«ł": 1617,
      "ãĤ¹ãĤ¿ãĥ¼": 1618,
      "åĶ": 1619,
      "è£ľ": 1620,
      "æ·±": 1621,
      "åĽ²": 1622,
      "åįļ": 1623,
      "ä½ľæĽ²": 1624,
      "æĭħå½ĵ": 1625,
      "ä»ĬåĽŀ": 1626,
      "ãĥįãĥĥãĥĪ": 1627,
      "ãģľ": 1628,
      "èĭ¥": 1629,
      "çŃĸ": 1630,
      "è¿°": 1631,
      "æıĽ": 1632,
      "åĢĭäºº": 1633,
      "äºĶ": 1634,
      "ä¸ŃåĽ½": 1635,
      "ä¼Ĭ": 1636,
      "âĢĿ": 1637,
      "å¾ĵ": 1638,
      "å§ĭãĤģ": 1639,
      "åıĤèĢĥ": 1640,
      "èĪª": 1641,
      "å®ħ": 1642,
      "è²©å£²": 1643,
      "çł´": 1644,
      "å¯¾å¿ľ": 1645,
      "åĩ¦": 1646,
      "éł¼": 1647,
      "ãĥļãĥ¼ãĤ¸": 1648,
      "ãģĺãĤĥ": 1649,
      "å¥Ī": 1650,
      "ãģªãģŁ": 1651,
      "ä»¤": 1652,
      "è¤": 1653,
      "ãģªãģĬ": 1654,
      "åĭ¢": 1655,
      "âĨĴ": 1656,
      "é£Łãģ¹": 1657,
      "ãĥīãĥ©ãĥŀ": 1658,
      "ãģ¡ãĤĥãĤĵ": 1659,
      "èĶ": 1660,
      "çĤº": 1661,
      "ãĤ¦ãĥ³": 1662,
      "åķĨåĵģ": 1663,
      "åĬ¹æŀľ": 1664,
      "ç¶ļãģĳ": 1665,
      "éĻº": 1666,
      "å¯Ł": 1667,
      "è¨³": 1668,
      "æ¯Ľ": 1669,
      "ãĤĦãģĻ": 1670,
      "æ¢": 1671,
      "é¡į": 1672,
      "å¤®": 1673,
      "ãĤŃãĥ¼": 1674,
      "ãģĭãģĭ": 1675,
      "äººéĸĵ": 1676,
      "è±Ĭ": 1677,
      "æ¸ħ": 1678,
      "é«ĺçŃī": 1679,
      "ãĤ¢ãĥ³": 1680,
      "å±ħ": 1681,
      "å®ŁéļĽ": 1682,
      "ãĥ¬ãĤ¤": 1683,
      "ãĥŀãĤ¤": 1684,
      "ãĥ¼ãĥĩ": 1685,
      "è³¼": 1686,
      "ä»¥éĻį": 1687,
      "ãģĭãĤĤ": 1688,
      "èĩªåĭķ": 1689,
      "ãĥ³ãĥĲãĥ¼": 1690,
      "ãĤ»ãĥ³ãĤ¿ãĥ¼": 1691,
      "çĹĩ": 1692,
      "ç®¡çĲĨ": 1693,
      "æĬĢè¡ĵ": 1694,
      "ãĥĬãĥ¼": 1695,
      "ç±į": 1696,
      "ãģĬãģĳ": 1697,
      "ãĤ«ãĥ¼ãĥī": 1698,
      "ãĥ¼ãĥģ": 1699,
      "ãģ¾ãģ¾": 1700,
      "ãģĿãĤĵãģª": 1701,
      "ãģĤãģªãģŁ": 1702,
      "è»½": 1703,
      "ä¸Ģè¦§": 1704,
      "é¦Ļ": 1705,
      "åħĲ": 1706,
      "ãģıãĤĭ": 1707,
      "æ¨Ļ": 1708,
      "ãĥ¬ãĥ¼": 1709,
      "åıİéĮ²": 1710,
      "ãĥĭãĥ¼": 1711,
      "æĸ½è¨Ń": 1712,
      "åįĴ": 1713,
      "éĢļãĤĬ": 1714,
      "æ¸©": 1715,
      "æŀĹ": 1716,
      "è¶ħ": 1717,
      "ä¸ģ": 1718,
      "å°±": 1719,
      "æ³ģ": 1720,
      "æ¥µ": 1721,
      "ãĤīãģĹ": 1722,
      "ç§ĭ": 1723,
      "æĮ¯": 1724,
      "å°ĳãģĹ": 1725,
      "ãĤıãģĳ": 1726,
      "æ¸Ľ": 1727,
      "ãģ¨ãģĨ": 1728,
      "ãĤ¤ãĥĦ": 1729,
      "ãģ¾ãģł": 1730,
      "ãĥĢãĤ¤": 1731,
      "ãĤĤãģĨ": 1732,
      "ãĥ¡ãĥ³ãĥĪ": 1733,
      "è³¼åħ¥": 1734,
      "æĳ": 1735,
      "ãĥĩãĤ¶": 1736,
      "è¨ĺäºĭ": 1737,
      "æĦıåĳ³": 1738,
      "å§Ķåĵ¡": 1739,
      "ãĤ¹ãĤ¯": 1740,
      "å¹¸": 1741,
      "å¤ı": 1742,
      "ä¸Ńå¿ĥ": 1743,
      "çļĨ": 1744,
      "è¡Ĺ": 1745,
      "å¸Ŀ": 1746,
      "åĽł": 1747,
      "ãĤĪãģı": 1748,
      "çī¹ãģ«": 1749,
      "é¦ĸ": 1750,
      "ãĤ½ãĥ³": 1751,
      "ãĥ©ãĥ³ãĥī": 1752,
      "ãģĹãģŁ": 1753,
      "çĽ¸æīĭ": 1754,
      "è©¦åĲĪ": 1755,
      "åħ¬éĸĭ": 1756,
      "å²©": 1757,
      "åĬ´": 1758,
      "ä¸ĸç´Ģ": 1759,
      "ãĥ»ãĥ»ãĥ»": 1760,
      "çŁŃ": 1761,
      "ãĥĵãĥ¥ãĥ¼": 1762,
      "åħ·": 1763,
      "è¨Ńå®ļ": 1764,
      "æıĲä¾Ľ": 1765,
      "ãĤ¸ãĥ¥": 1766,
      "å½±éŁ¿": 1767,
      "è²¡": 1768,
      "ç²¾": 1769,
      "å¯Ħ": 1770,
      "ç®Ĺ": 1771,
      "åħ¬å¼ı": 1772,
      "ãĤ·ãĤ¹ãĥĨ": 1773,
      "èª²": 1774,
      "è¨Ńç½®": 1775,
      "æľĢåĪĿ": 1776,
      "éĹĺ": 1777,
      "æīĢå±ŀ": 1778,
      "ãĥĥãĤ«ãĥ¼": 1779,
      "å¿Ĺ": 1780,
      "äºĭä»¶": 1781,
      "è©³": 1782,
      "ãĥ¼ãĥĸ": 1783,
      "ãĤ°ãĥ«ãĥ¼ãĥĹ": 1784,
      "ãĤ¢ãĥĥãĥĹ": 1785,
      "è¨ĺéĮ²": 1786,
      "ãģĭãģ¤": 1787,
      "åŃĲä¾Ľ": 1788,
      "ãĤ·ãĤ¹ãĥĨãĥł": 1789,
      "ä»¥å¤ĸ": 1790,
      "ãĥªãĥ¼ãĤ°": 1791,
      "ä¸Ńå¤®": 1792,
      "æİ²": 1793,
      "çĶŁãģ¾ãĤĮ": 1794,
      "åĪ¶ä½ľ": 1795,
      "å°¾": 1796,
      "å¾Ĵ": 1797,
      "ãĥĩãĥ«": 1798,
      "å®ĩ": 1799,
      "çļĩ": 1800,
      "éĥ¨åĪĨ": 1801,
      "ç¹Ķ": 1802,
      "ãĥĹãĥ©": 1803,
      "æķħ": 1804,
      "åłĤ": 1805,
      "åĲĳãģĳ": 1806,
      "æ©Łèĥ½": 1807,
      "ãĤ¢ãĤ¯": 1808,
      "ãģ¡ãĤĩ": 1809,
      "çµĮæ¸Ī": 1810,
      "ãĥīãĥ«": 1811,
      "æ¨¡": 1812,
      "åº·": 1813,
      "è¡Ģ": 1814,
      "ãĤ¤ãĥĻ": 1815,
      "ç¥Ń": 1816,
      "ãĥ¼ãĥ«ãĥī": 1817,
      "åĪĨãģĭ": 1818,
      "é¡Ķ": 1819,
      "ãĥĽãĥ¼ãĥł": 1820,
      "çķĻ": 1821,
      "åĩºåł´": 1822,
      "å°ĳãģª": 1823,
      "é¤Ĭ": 1824,
      "åĪĬ": 1825,
      "ãĤ¨ãĥ«": 1826,
      "åı³": 1827,
      "ãĤ¦ãĤ¹": 1828,
      "å¸¸ãģ«": 1829,
      "éģº": 1830,
      "æĵ": 1831,
      "çķ¥": 1832,
      "æ©Łéĸ¢": 1833,
      "é¡ĺãģĦ": 1834,
      "ãĤĵãģ©": 1835,
      "èĶµ": 1836,
      "èĻ": 1837,
      "è¤ĩ": 1838,
      "çĴ°å¢ĥ": 1839,
      "åĦªåĭĿ": 1840,
      "ãĥ¶": 1841,
      "æºĲ": 1842,
      "æıı": 1843,
      "ç°": 1844,
      "ãĥªãĤ¹ãĥĪ": 1845,
      "èª¿æŁ»": 1846,
      "ãĤŃãĥ£ãĥ©": 1847,
      "çĻ»éĮ²": 1848,
      "ãĤ·ãĥ¼ãĤº": 1849,
      "åľ°æĸ¹": 1850,
      "ãģ¦ãĤĤ": 1851,
      "æİ¨": 1852,
      "èµ·ãģĵ": 1853,
      "ãĤ¤ãĥ³ãĤ¿": 1854,
      "ãĥķãĥ©ãĥ³ãĤ¹": 1855,
      "âĹ": 1856,
      "æ³ī": 1857,
      "æľĢå¾Į": 1858,
      "å¾³": 1859,
      "æĽ¿": 1860,
      "ãĤ·ãĥ¼": 1861,
      "ãģ¨ãģ¦ãĤĤ": 1862,
      "ãĥīãĤ¤ãĥĦ": 1863,
      "ãģ£ãģ": 1864,
      "ãĥĩãĥ¼ãĤ¿": 1865,
      "éģł": 1866,
      "æĢĿãģĦ": 1867,
      "çħ§": 1868,
      "å§¿": 1869,
      "ãģĦãĤį": 1870,
      "çİī": 1871,
      "ãĤ¤ãĥĻãĥ³ãĥĪ": 1872,
      "æī¿": 1873,
      "éĻ½": 1874,
      "è¨Ńç«ĭ": 1875,
      "çµ¶": 1876,
      "å¤īãĤı": 1877,
      "ç·Ĵ": 1878,
      "ãĢĲ": 1879,
      "ãĤ·ãĥ¼ãĤºãĥ³": 1880,
      "çµĲå©ļ": 1881,
      "é£²": 1882,
      "è³Ģ": 1883,
      "äº¬éĥ½": 1884,
      "ãĥŃãĥ¼": 1885,
      "ãĤ·ãĥ³ãĤ°ãĥ«": 1886,
      "ãĥ¼ãĥĭ": 1887,
      "ãĢĳ": 1888,
      "ä¸Ģãģ¤": 1889,
      "ãĥĲãĤ¤": 1890,
      "æģĭ": 1891,
      "å·¦": 1892,
      "å¥³åŃĲ": 1893,
      "å¹´ä»£": 1894,
      "å®Ĺ": 1895,
      "çªģ": 1896,
      "çµĤäºĨ": 1897,
      "æ¼«": 1898,
      "æľ¬å½ĵ": 1899,
      "åį°": 1900,
      "ãĥ¼ãĥĨãĤ£": 1901,
      "å¥ĳ": 1902,
      "æİ¡": 1903,
      "ãĤ¶ãĥ¼": 1904,
      "å½¼å¥³": 1905,
      "ãĥ¼ãĥŃ": 1906,
      "å®¿": 1907,
      "ãĤ¢ãĥ¼": 1908,
      "çµ¦": 1909,
      "ãĤ±ãĥĥãĥĪ": 1910,
      "ãģĵãģ¡ãĤī": 1911,
      "è¾²": 1912,
      "éĩĮ": 1913,
      "åĩºçīĪ": 1914,
      "åĭĻãĤģ": 1915,
      "èĦ±": 1916,
      "ãĤ¥": 1917,
      "è¢«": 1918,
      "çĶ·æĢ§": 1919,
      "ç¯Ģ": 1920,
      "äº¤éĢļ": 1921,
      "è¡¨ç¤º": 1922,
      "æĬľ": 1923,
      "åĿĤ": 1924,
      "æ¦Ĥè¦ģ": 1925,
      "åıĬãģ³": 1926,
      "ãģŁãģı": 1927,
      "åģľ": 1928,
      "åĢī": 1929,
      "æ°¸": 1930,
      "éĩİçĲĥ": 1931,
      "éĽĦ": 1932,
      "åĲĮå¹´": 1933,
      "èģĸ": 1934,
      "ä¹ĭ": 1935,
      "è¨ĪçĶ»": 1936,
      "çĨ±": 1937,
      "ãģ»ãģĭ": 1938,
      "ãĥĩãĤ¶ãĤ¤ãĥ³": 1939,
      "ãĤŃãĥ³ãĤ°": 1940,
      "æĪ»": 1941,
      "å¾´": 1942,
      "ä»ĬæĹ¥": 1943,
      "éĥ½å¸Ĥ": 1944,
      "ãģŀãĤĮ": 1945,
      "é«ĺæł¡": 1946,
      "çĽ®çļĦ": 1947,
      "ãģ²ãģ¨": 1948,
      "éĩįè¦ģ": 1949,
      "ãģĿãĤĮãģŀãĤĮ": 1950,
      "å¦»": 1951,
      "åħ¨åĽ½": 1952,
      "çĬ¶æ³ģ": 1953,
      "çĲĨçĶ±": 1954,
      "å¤§ãģįãģª": 1955,
      "éĽ»è©±": 1956,
      "ãĥ¡ãĥ¼ãĥ«": 1957,
      "è¨ĺå¿µ": 1958,
      "è§Ĵ": 1959,
      "æĿ¿": 1960,
      "çĽ¸è«ĩ": 1961,
      "èªĮ": 1962,
      "ä¸ĭãģķ": 1963,
      "çĶ¨ãģĦ": 1964,
      "ãĥ©ãĤ¤ãĥĸ": 1965,
      "éģĬ": 1966,
      "åįĴæ¥Ń": 1967,
      "äºĪå®ļ": 1968,
      "çĻºçĶŁ": 1969,
      "å¼¾": 1970,
      "ãģĦãģ¾": 1971,
      "æī±": 1972,
      "ç«¯": 1973,
      "ãĥ³ãĥĳ": 1974,
      "ä¸İãģĪ": 1975,
      "çī¹åĪ¥": 1976,
      "å¸Ń": 1977,
      "ä¹Ŀ": 1978,
      "å®Ŀ": 1979,
      "ç¸¾": 1980,
      "æĻ¯": 1981,
      "çµµ": 1982,
      "ä¸¸": 1983,
      "å¥ĳç´Ħ": 1984,
      "ãģĻãģĲ": 1985,
      "è¨±": 1986,
      "è¨Ģèĳī": 1987,
      "åŁºæľ¬": 1988,
      "ãĥ¼ãĥĳ": 1989,
      "å¸Į": 1990,
      "è·¡": 1991,
      "éļľ": 1992,
      "éĿ©": 1993,
      "ãĤ¸ãĤ¢": 1994,
      "éłĨ": 1995,
      "ãĥ¼ãĤ¿ãĥ¼": 1996,
      "âĺ": 1997,
      "ãĤ½ãĥķãĥĪ": 1998,
      "äºĭåĭĻ": 1999,
      "åĬŁ": 2000,
      "å°ĤéĸĢ": 2001,
      "ç§Ģ": 2002,
      "æķµ": 2003,
      "ãģ¨ãģ£ãģ¦": 2004,
      "æĮĩå®ļ": 2005,
      "çµĮé¨ĵ": 2006,
      "ãĥĥãĤ·ãĥ¥": 2007,
      "éĽĳ": 2008,
      "åĲĪè¡Ĩ": 2009,
      "çķ°ãģª": 2010,
      "æīķ": 2011,
      "ãģ¨ãģĭ": 2012,
      "ãĤ¤ãĥ³ãĥĪ": 2013,
      "ãĥ¡ãĥ³ãĥĲãĥ¼": 2014,
      "æĸĩçĮ®": 2015,
      "å¥ı": 2016,
      "æľĢçµĤ": 2017,
      "æ§ĺãĢħ": 2018,
      "æľį": 2019,
      "ãĥĸãĥŃãĤ°": 2020,
      "ä½įç½®": 2021,
      "æ¼«çĶ»": 2022,
      "ä½µ": 2023,
      "ãģĻãģ¹": 2024,
      "ãģ¾ãģŁãģ¯": 2025,
      "éİ": 2026,
      "ãĥĨãĥ«": 2027,
      "æŀļ": 2028,
      "ç´Ļ": 2029,
      "åħ¨ãģ¦": 2030,
      "éĢĶ": 2031,
      "ãĤ·ãĥ£ãĥ«": 2032,
      "æģ¯": 2033,
      "ä¼´": 2034,
      "æĲº": 2035,
      "ç¾¤": 2036,
      "ç°¡": 2037,
      "ãĥ¼ãĥį": 2038,
      "çĢ": 2039,
      "ç¨İ": 2040,
      "å®Łæĸ½": 2041,
      "æľŁéĸĵ": 2042,
      "å°Ħ": 2043,
      "äººæ°Ĺ": 2044,
      "èª°": 2045,
      "ãĤ¤ãĤ®": 2046,
      "äº¡": 2047,
      "è¨ª": 2048,
      "ãĤ¤ãĥī": 2049,
      "çĦ¡æĸĻ": 2050,
      "åĩºä¼ļ": 2051,
      "ãĤµãĥĥãĤ«ãĥ¼": 2052,
      "åĸ¶æ¥Ń": 2053,
      "åĪĿãĤģãģ¦": 2054,
      "åĲįåīį": 2055,
      "èĭ±èªŀ": 2056,
      "æ±ł": 2057,
      "ãĥĪãĥª": 2058,
      "å¸ĥ": 2059,
      "éĿĻ": 2060,
      "çĽ¤": 2061,
      "ãĤ¤ãĤ®ãĥªãĤ¹": 2062,
      "ãĥ³ãĥĩãĤ£": 2063,
      "ãģıãĤīãģĦ": 2064,
      "ãĥ¢ãĥĩãĥ«": 2065,
      "å®¶æĹı": 2066,
      "æ¤į": 2067,
      "çģ½": 2068,
      "è²´": 2069,
      "å«": 2070,
      "åĸĦ": 2071,
      "ãĥ©ãĤ¤ãĥ³": 2072,
      "ä½ľè©ŀ": 2073,
      "ãģķãģ¾": 2074,
      "ãĤ¾": 2075,
      "ãĥªãĥ³ãĤ°": 2076,
      "ãģ©ãģ®": 2077,
      "å¯Ĩ": 2078,
      "å¹´åº¦": 2079,
      "æĶ¿æ²»": 2080,
      "çµ¡": 2081,
      "ãĥ©ãĤ¸ãĤª": 2082,
      "æĸ°ãģĹ": 2083,
      "ãĤ¹ãĥĿãĥ¼ãĥĦ": 2084,
      "æµ·éģĵ": 2085,
      "æ²¡": 2086,
      "çį²": 2087,
      "è£ģ": 2088,
      "ãĥ¼ãĥĢ": 2089,
      "ç·´": 2090,
      "å»¶": 2091,
      "åĢĴ": 2092,
      "æĭł": 2093,
      "ãĤ¹ãĤ³": 2094,
      "ãĥ¢ãĥ³": 2095,
      "çµĤãĤı": 2096,
      "æĴ®å½±": 2097,
      "é³¥": 2098,
      "ä»²": 2099,
      "æĶ»æĴĥ": 2100,
      "ãĤīãģĭ": 2101,
      "æĪ¦äºī": 2102,
      "æ±ºå®ļ": 2103,
      "èª¬æĺİ": 2104,
      "ãģ»ãģ¨": 2105,
      "è¦ĭãģĪ": 2106,
      "ãĥĳãĥ³": 2107,
      "ãģ¾ãģļ": 2108,
      "åľ§": 2109,
      "èĭ¦": 2110,
      "ä¸ĬãģĮ": 2111,
      "ãĤĤãģĹ": 2112,
      "ãģ©ãĤĤ": 2113,
      "ãģĤãĤĬãģĮ": 2114,
      "éŁĵ": 2115,
      "ãģ¤ãģĭ": 2116,
      "æ¿Ģ": 2117,
      "ãģĤãģ¾ãĤĬ": 2118,
      "ç·ıåĲĪ": 2119,
      "ãģ»ãģ¨ãĤĵãģ©": 2120,
      "å¼Ł": 2121,
      "âĢľ": 2122,
      "ãĥ¼ãĥķ": 2123,
      "çĹħéĻ¢": 2124,
      "ãĥķãĥ¬": 2125,
      "ä¸Ģç·Ĵ": 2126,
      "èı¯": 2127,
      "æİĽ": 2128,
      "ç¨ĭåº¦": 2129,
      "æ¨¹": 2130,
      "èĥĮ": 2131,
      "ç§ĳåŃ¦": 2132,
      "ãĤ¿ãĥ³": 2133,
      "ãĤ¯ãĥ©ãĥĸ": 2134,
      "ãĥĿãĥ¼ãĥĪ": 2135,
      "ä¸Ģæĸ¹": 2136,
      "ãģĵãĤĮãĤī": 2137,
      "å»ĥæŃ¢": 2138,
      "çĶŁãģį": 2139,
      "æ±ĤãĤģ": 2140,
      "çĻ¾": 2141,
      "ä»®": 2142,
      "æĪ¿": 2143,
      "ãĥĪãĥ¬": 2144,
      "ãģŁãģĦ": 2145,
      "ãģĻãĤĮ": 2146,
      "ä»¥åīį": 2147,
      "åĩºåħ¸": 2148,
      "ãĥıãĤ¤": 2149,
      "è«ĭ": 2150,
      "èŃ°åĵ¡": 2151,
      "è£½ä½ľ": 2152,
      "æķĻæİĪ": 2153,
      "ãĤ·ãĥ³": 2154,
      "åĥķ": 2155,
      "å¼ģ": 2156,
      "å¸Ĥç«ĭ": 2157,
      "å¤¢": 2158,
      "ãĤŃãĥ¥": 2159,
      "çŃĶ": 2160,
      "ãĤŃãĥ£ãĥ©ãĤ¯ãĤ¿ãĥ¼": 2161,
      "æĶ¯æı´": 2162,
      "ãĤµãĥ³": 2163,
      "æķ£": 2164,
      "åĲĮæ§ĺ": 2165,
      "ãĥĿãĤ¤ãĥ³ãĥĪ": 2166,
      "æ°ĹæĮģãģ¡": 2167,
      "å¨ĺ": 2168,
      "ãĥ¼ãĤ¹ãĥĪ": 2169,
      "å¹ķ": 2170,
      "ãĤ¢ãĥĬ": 2171,
      "èĩªçĶ±": 2172,
      "ãģıãĤĬ": 2173,
      "ãģĻãģ¹ãģ¦": 2174,
      "æłĦ": 2175,
      "ç¿Į": 2176,
      "ä¸¦": 2177,
      "ä¸ģçĽ®": 2178,
      "åıĹè³ŀ": 2179,
      "éģĵè·¯": 2180,
      "ãĥŃãĥ³": 2181,
      "æİ²è¼ī": 2182,
      "æĬŀ": 2183,
      "å£Ĭ": 2184,
      "ãĥĪãĥ«": 2185,
      "åºŃ": 2186,
      "ãĤ³ãĥŁ": 2187,
      "çĶ³ãģĹ": 2188,
      "ãĥŀãĥ«": 2189,
      "ãĥĥãĥķ": 2190,
      "ãĥĭãĥ¥ãĥ¼": 2191,
      "è©ķä¾¡": 2192,
      "....": 2193,
      "èĩªçĦ¶": 2194,
      "çĢ¬": 2195,
      "éģĭåĭķ": 2196,
      "ç´į": 2197,
      "åħ¬åľĴ": 2198,
      "æĶ¿åºľ": 2199,
      "å¯¾è±¡": 2200,
      "ãĥĳãĥ¼": 2201,
      "æ²¿": 2202,
      "ãĤ¦ãĤ©": 2203,
      "æ¸¬": 2204,
      "é®": 2205,
      "éģ¸æĮĻ": 2206,
      "çĶ²": 2207,
      "ãĤ»ãĥ«": 2208,
      "èĤī": 2209,
      "ãĤ¸ãĥ§ãĥ³": 2210,
      "æĻĤæľŁ": 2211,
      "åĮĹæµ·éģĵ": 2212,
      "åįĶä¼ļ": 2213,
      "é½": 2214,
      "éĢļå¸¸": 2215,
      "åĸľ": 2216,
      "å¯©": 2217,
      "ãģĺãĤģ": 2218,
      "éħ¸": 2219,
      "åĢĻ": 2220,
      "éģķãģĦ": 2221,
      "é¹": 2222,
      "ä¸Ģäºº": 2223,
      "éĢĨ": 2224,
      "çĹĽ": 2225,
      "ãĥŀãĥ¼": 2226,
      "ãĥ¡ãĥ¼ãĤ¸": 2227,
      "ãĥ¼ãĥĬãĥ¼": 2228,
      "èĤĮ": 2229,
      "æµ¦": 2230,
      "ä¾Ŀ": 2231,
      "ãģĤãĤĬãģĮãģ¨ãģĨ": 2232,
      "èĩ£": 2233,
      "æĸ°èģŀ": 2234,
      "æĪĳ": 2235,
      "ãĤ»ãĤ¹": 2236,
      "ä¼ģçĶ»": 2237,
      "ãĤ·ãĤ§": 2238,
      "éĢ£çµ¡": 2239,
      "è«¸": 2240,
      "çĽĽ": 2241,
      "åĪĳ": 2242,
      "ãĥ³ãĥĦ": 2243,
      "ãĤ¹ãĤ¿ãĥĥãĥķ": 2244,
      "ãĥĹãĥ¬ãĤ¤": 2245,
      "æ²»çĻĤ": 2246,
      "çī¹å¾´": 2247,
      "éħĴ": 2248,
      "ãĥ¼ãĥĳãĥ¼": 2249,
      "èĪªç©º": 2250,
      "åħĦ": 2251,
      "æĵį": 2252,
      "è¿İ": 2253,
      "çµĦãģ¿": 2254,
      "æľĢå¤§": 2255,
      "åĭ¤": 2256,
      "èĩ´": 2257,
      "ãĤ¯ãĥ¬": 2258,
      "éģİåİ»": 2259,
      "ãģĹãĤĪ": 2260,
      "ãģŁãģıãģķãĤĵ": 2261,
      "å²¸": 2262,
      "çį²å¾Ĺ": 2263,
      "æ§ĭæĪĲ": 2264,
      "æ¬²": 2265,
      "å°ıèª¬": 2266,
      "åĬĩåł´": 2267,
      "ãĥĩãĤ£ãĤ¢": 2268,
      "ç·¨æĽ²": 2269,
      "éĿŀå¸¸ãģ«": 2270,
      "ä¼ĿãģĪ": 2271,
      "ãģŁãģłãģĹ": 2272,
      "åľ°åĮº": 2273,
      "è¡Įåĭķ": 2274,
      "æĬĹ": 2275,
      "ä¹±": 2276,
      "åºģ": 2277,
      "çµĮåĸ¶": 2278,
      "éĥ·": 2279,
      "å»ºè¨Ń": 2280,
      "çµĦç¹Ķ": 2281,
      "æľĢé«ĺ": 2282,
      "ãĥŁãĥ¥ãĥ¼ãĤ¸": 2283,
      "åīĩ": 2284,
      "çĩ": 2285,
      "åĤ·": 2286,
      "ãĥĲãĥ«": 2287,
      "æŁĵ": 2288,
      "å±Ĭ": 2289,
      "ãĥĵãĥ¼": 2290,
      "ãĤ¹ãĤ«": 2291,
      "åħ¥ãĤĬ": 2292,
      "ŀį": 2293,
      "ãģ£ãģĭãĤĬ": 2294,
      "æ³ķäºº": 2295,
      "å¤§åĪĩ": 2296,
      "æľĿæĹ¥": 2297,
      "æ³¨æĦı": 2298,
      "èĪİ": 2299,
      "èĪŀåı°": 2300,
      "å¹ħ": 2301,
      "èĥ½åĬĽ": 2302,
      "éģ¸æĬŀ": 2303,
      "èģ´": 2304,
      "é¹¿": 2305,
      "å°ıãģķ": 2306,
      "åĭŁ": 2307,
      "éľĩ": 2308,
      "åħŃ": 2309,
      "ãĤ¢ãĥī": 2310,
      "ä¼¼": 2311,
      "çĲĨè§£": 2312,
      "è¼¸": 2313,
      "ãĤ«ãĥĥãĥĹ": 2314,
      "âĻ": 2315,
      "çĪĨ": 2316,
      "å¤ªéĥİ": 2317,
      "èįī": 2318,
      "æľĢãĤĤ": 2319,
      "ãĥĥãĤ°": 2320,
      "æŃ¯": 2321,
      "æľĢè¿ĳ": 2322,
      "ãģ©ãģĵ": 2323,
      "ãĥĵãĥ«": 2324,
      "ç¶ļãģį": 2325,
      "åī¯": 2326,
      "ç·ł": 2327,
      "ç¾½": 2328,
      "ãĥĨãĥ¼ãĥŀ": 2329,
      "ä¸»ç¾©": 2330,
      "å»ºç¯ī": 2331,
      "è¼ª": 2332,
      "æģµ": 2333,
      "ãĤ¿ãĥ«": 2334,
      "å¡ļ": 2335,
      "ãģĭãģªãĤĬ": 2336,
      "ç£": 2337,
      "è²¨": 2338,
      "ãĤ³ãĥ¼ãĥī": 2339,
      "ç«¹": 2340,
      "âĢĵ": 2341,
      "ç½ª": 2342,
      "åį±": 2343,
      "å¹¼": 2344,
      "æ±ºãĤģ": 2345,
      "ãĥľãĥ¼ãĥ«": 2346,
      "é½¢": 2347,
      "ãĥ¯ãĥ¼": 2348,
      "ãĤªãĥ¼ãĥĹ": 2349,
      "æķĻãģĪ": 2350,
      "ãĥ³ãĥķ": 2351,
      "åİŁåĽł": 2352,
      "ä¸Ģçķª": 2353,
      "ãĤ®ãĥ¼": 2354,
      "èĨ": 2355,
      "ãģĦãģĨ": 2356,
      "éĸī": 2357,
      "ãĥįãĤ¹": 2358,
      "è·¯ç·ļ": 2359,
      "ãĥįãĥ«": 2360,
      "ãģ¡ãĤĩãģ£ãģ¨": 2361,
      "å½ĵåĪĿ": 2362,
      "ãĥ¼ãĥ¬": 2363,
      "åįĶåĬĽ": 2364,
      "ä½Ļ": 2365,
      "èºį": 2366,
      "é®®": 2367,
      "ä¸Ģåº¦": 2368,
      "éģĭåĸ¶": 2369,
      "æĻ®éĢļ": 2370,
      "æĩ": 2371,
      "åĲĮæĻĤ": 2372,
      "ç´¢": 2373,
      "å¾ĭ": 2374,
      "æĺĩ": 2375,
      "ãĥĮ": 2376,
      "ãĤ¿ãĤ¤ãĥĪ": 2377,
      "åĢŁ": 2378,
      "ãģĭãģ¤ãģ¦": 2379,
      "ç¨®é¡ŀ": 2380,
      "è¸": 2381,
      "éĻĲå®ļ": 2382,
      "èĢģ": 2383,
      "ç¾İè¡ĵ": 2384,
      "æįķ": 2385,
      "ãĤıãĤĬ": 2386,
      "åĮ»çĻĤ": 2387,
      "å®Įåħ¨": 2388,
      "æ¯İæĹ¥": 2389,
      "æİ¡çĶ¨": 2390,
      "ãĤ¯ãĤ·ãĥ§ãĥ³": 2391,
      "ãĥ¬ãĥ³": 2392,
      "ãĥ¼ãĤ«ãĥ¼": 2393,
      "ãģĶãģĸãģĦãģ¾": 2394,
      "ãģĦãģĳ": 2395,
      "éĬĢè¡Į": 2396,
      "ãĥªãĥ¼ãĤ¹": 2397,
      "å¢ĹãģĪ": 2398,
      "éĽ¨": 2399,
      "ãĥ¦ãĥĭ": 2400,
      "çĽŁ": 2401,
      "ãĥĥãĥĦ": 2402,
      "éĩĪ": 2403,
      "èŃ¦å¯Ł": 2404,
      "çĦ¼": 2405,
      "ãĤ¹ãĥĨãĤ£": 2406,
      "ãģĵãĤĵãģª": 2407,
      "ç°¡åįĺ": 2408,
      "ä¿ĿéĻº": 2409,
      "åŃ¦çĶŁ": 2410,
      "èĹ©": 2411,
      "è¨º": 2412,
      "ãĤ¢ãĥĹãĥª": 2413,
      "ãģªãģı": 2414,
      "èŀį": 2415,
      "æµ®": 2416,
      "æĸĻçĲĨ": 2417,
      "ãĤ¹ãĥŀ": 2418,
      "è£ı": 2419,
      "æĭ¡": 2420,
      "æ¹¾": 2421,
      "ãĥ¼ãĥĩãĤ£": 2422,
      "ãĥĽãĥĨãĥ«": 2423,
      "ç§ĺ": 2424,
      "åĬ´åĥį": 2425,
      "è¾¼ãģ¿": 2426,
      "ãĤħ": 2427,
      "å¸ĮæľĽ": 2428,
      "çĸĳ": 2429,
      "æĮĩå°İ": 2430,
      "åı¤å±ĭ": 2431,
      "ä¾¡æł¼": 2432,
      "ãĤĤãģ£ãģ¨": 2433,
      "åħĪçĶŁ": 2434,
      "ãĤ¿ãĤ¤ãĥĪãĥ«": 2435,
      "ãĥªãĤª": 2436,
      "æµģãĤĮ": 2437,
      "è¨İ": 2438,
      "æĬ¼": 2439,
      "ä¸ĥ": 2440,
      "æ¥½æĽ²": 2441,
      "çķªåı·": 2442,
      "å®īåħ¨": 2443,
      "èĪĹ": 2444,
      "çĶŁçĶ£": 2445,
      "åĬłãģĪ": 2446,
      "è¼ĥ": 2447,
      "ãĤĤãģ¡": 2448,
      "å¤īåĮĸ": 2449,
      "çĬ¯": 2450,
      "ãĥ¯ãĥ¼ãĤ¯": 2451,
      "è£½éĢł": 2452,
      "æĥĳ": 2453,
      "æķĳ": 2454,
      "è¬Ŀ": 2455,
      "èªįãĤģ": 2456,
      "çī©èªŀ": 2457,
      "ç¦ıå²¡": 2458,
      "æ¯Ķè¼ĥ": 2459,
      "åģ¥åº·": 2460,
      "åĲįåı¤å±ĭ": 2461,
      "æĤ©": 2462,
      "ãĥķãĤ¡ãĥ³": 2463,
      "æ²ĸ": 2464,
      "ãĤ³ãĥ¼ãĤ¹": 2465,
      "æľŃ": 2466,
      "è¿½åĬł": 2467,
      "åºĥå³¶": 2468,
      "åĽº": 2469,
      "éģ¿": 2470,
      "åŃĺåĳ½": 2471,
      "ãĥŃãĤ·ãĤ¢": 2472,
      "ãĥ¦ãĥ¼": 2473,
      "ç«ĭãģ¡": 2474,
      "éħįä¿¡": 2475,
      "éŁĵåĽ½": 2476,
      "åĨ·": 2477,
      "éļ£": 2478,
      "èĮ¶": 2479,
      "ãĥĭãĥ¥ãĥ¼ãĤ¹": 2480,
      "ãĥģãĥ¥": 2481,
      "å®Ļ": 2482,
      "ãĢĪ": 2483,
      "ãĢī": 2484,
      "éª": 2485,
      "ãĤ¤ãĤ¿": 2486,
      "ÃĹ": 2487,
      "æĪĲåĬŁ": 2488,
      "åĲĽ": 2489,
      "ãĥ´ãĤ§": 2490,
      "æ»ħ": 2491,
      "æĻĤçĤ¹": 2492,
      "éģĭè»¢": 2493,
      "æĸĩåŃĹ": 2494,
      "ãĤ¹ãĥĶ": 2495,
      "ãģĹãĤĥ": 2496,
      "ç¥ŀç¤¾": 2497,
      "å¥¥": 2498,
      "çĽĬ": 2499,
      "ãĥĩãĥĵãĥ¥ãĥ¼": 2500,
      "åĪĩãĤĬ": 2501,
      "è²¬": 2502,
      "è¦³åħī": 2503,
      "ãĤįãĤĵ": 2504,
      "ãĤ¨ãĥ³ãĤ¸": 2505,
      "åĳ¨è¾º": 2506,
      "åĽ°": 2507,
      "ãĥ³ãĥĨãĤ£": 2508,
      "åŃ£": 2509,
      "çīĩ": 2510,
      "ä¿ĿèŃ·": 2511,
      "éĤ¦": 2512,
      "æĸ°ãģŁ": 2513,
      "åĭķçĶ»": 2514,
      "è»Ĭä¸¡": 2515,
      "ãģĹãģ°": 2516,
      "ãĥķãĥ«": 2517,
      "äºĭæķħ": 2518,
      "ãģĪãģ°": 2519,
      "ãģ£ãģ±": 2520,
      "åįł": 2521,
      "ãĥķãĤ¸": 2522,
      "ãĥĢãĥ¼": 2523,
      "ãĥĸãĥª": 2524,
      "çĨĬ": 2525,
      "æĿ¡ä»¶": 2526,
      "çĻºè¡Į": 2527,
      "éº»": 2528,
      "å±¤": 2529,
      "æı®": 2530,
      "åĽ½åĨħ": 2531,
      "ãģ¾ãģ¨": 2532,
      "ãĤ¹ãĥ¼ãĥĳãĥ¼": 2533,
      "å½¦": 2534,
      "ä½ľæ¥Ń": 2535,
      "ãĤ¯ãĥ«": 2536,
      "ãĥĽãĥ¼ãĥ«": 2537,
      "èĩ³": 2538,
      "è£½åĵģ": 2539,
      "ãĥĹãĥŃãĥĩ": 2540,
      "éĥ¨å±ĭ": 2541,
      "ãĥ©ãĤ¹": 2542,
      "âĺĨ": 2543,
      "åĲĳãģĭ": 2544,
      "ç´Ķ": 2545,
      "æĸĩåº«": 2546,
      "èĲ½ãģ¡": 2547,
      "éĢĥ": 2548,
      "å¹´éĸĵ": 2549,
      "çĻºè¦ĭ": 2550,
      "å§ĭãģ¾": 2551,
      "å®£": 2552,
      "ç¦ģ": 2553,
      "ãģĻãģİ": 2554,
      "å©¦": 2555,
      "ãģ»ãģĨ": 2556,
      "æĤ£": 2557,
      "åħ¨ä½ĵ": 2558,
      "çŃĭ": 2559,
      "ä½ľæĪĲ": 2560,
      "æ¨ªæµľ": 2561,
      "è§¦": 2562,
      "åŃĲãģ©ãĤĤ": 2563,
      "ç«ĭãģ¦": 2564,
      "ä»ĺãģį": 2565,
      "æĺĵ": 2566,
      "ãĤĤãģ¡ãĤįãĤĵ": 2567,
      "æĺłåĥı": 2568,
      "åĺ": 2569,
      "çł²": 2570,
      "ãĤ¤ãĥ¡ãĥ¼ãĤ¸": 2571,
      "ãģĦãģ¤ãĤĤ": 2572,
      "éģħ": 2573,
      "ç«¶æĬĢ": 2574,
      "åıĸå¾Ĺ": 2575,
      "åįĪ": 2576,
      "äºĪç´Ħ": 2577,
      "é§Ĳ": 2578,
      "ãĥĻãĥ¼ãĤ¹": 2579,
      "éĪ": 2580,
      "æĢª": 2581,
      "æ±ŁæĪ¸": 2582,
      "ãģ©ãĤĵãģª": 2583,
      "ãĥªãĥªãĥ¼ãĤ¹": 2584,
      "æ··": 2585,
      "è¾ŀ": 2586,
      "ãĤ¿ãĤ¤ãĥĹ": 2587,
      "åł±åĳĬ": 2588,
      "æ¬ł": 2589,
      "å®ĩå®Ļ": 2590,
      "ãĤıãģŁ": 2591,
      "å°±ä»»": 2592,
      "æĲŃ": 2593,
      "ãģĻãģĻ": 2594,
      "ç¯Ħ": 2595,
      "æĦıèŃĺ": 2596,
      "è¨ĢãģĪ": 2597,
      "å²Ĳ": 2598,
      "åĽ£ä½ĵ": 2599,
      "ãģ¯ãģļ": 2600,
      "å¸ĿåĽ½": 2601,
      "ç§»åĭķ": 2602,
      "ç¨¿": 2603,
      "åĪ¸": 2604,
      "éª¨": 2605,
      "åŁ·": 2606,
      "ä¸»äºº": 2607,
      "å®ĮæĪĲ": 2608,
      "æĲį": 2609,
      "æ¥ŃåĭĻ": 2610,
      "æİĽãģĳ": 2611,
      "éĢ£ç¶ļ": 2612,
      "ãĤ¬ãĥ¼": 2613,
      "ãĥĥãĥĳ": 2614,
      "ãģĤãģŁ": 2615,
      "ãģ¶ãĤĬ": 2616,
      "èªķ": 2617,
      "ãģªãĤĵãģ¦": 2618,
      "ãģĹãģ£ãģĭãĤĬ": 2619,
      "å°İåħ¥": 2620,
      "é§Ĩ": 2621,
      "éĢļä¿¡": 2622,
      "ãĤ¢ãĥ¬": 2623,
      "ä¸įæĺİ": 2624,
      "æĪ¦éĹĺ": 2625,
      "æ§ĭéĢł": 2626,
      "ãĤ¸ãĥ£ãĥ¼": 2627,
      "å®īå¿ĥ": 2628,
      "äºĴ": 2629,
      "è¥²": 2630,
      "æ´»èºį": 2631,
      "è©³ç´°": 2632,
      "ãĥ¼ãĥªãĥ¼": 2633,
      "æĻ´": 2634,
      "ãģĶãģ¨": 2635,
      "ãĥ¼ãĥĲ": 2636,
      "çĬ¬": 2637,
      "ä½¿ãģĦ": 2638,
      "ç·¨éĽĨ": 2639,
      "ãĤ¦ãĥ«": 2640,
      "åħ¼": 2641,
      "è£ķ": 2642,
      "å·¨": 2643,
      "æĹ¢": 2644,
      "åºĹèĪĹ": 2645,
      "ä¼¸": 2646,
      "å±ķéĸĭ": 2647,
      "æµ·å¤ĸ": 2648,
      "æŀľãģŁ": 2649,
      "æ¡ľ": 2650,
      "ãĤ¿ãĤ¤ãĥł": 2651,
      "æģĲ": 2652,
      "ãĥ¼ãĥĪãĥ«": 2653,
      "åıĤçħ§": 2654,
      "ãģ¬": 2655,
      "ä»Ĭå¾Į": 2656,
      "âĢķ": 2657,
      "ãĥĥãĤ·ãĥ§ãĥ³": 2658,
      "éĽ£ãģĹ": 2659,
      "åĭī": 2660,
      "ãĤ¤ãĤ¿ãĥªãĤ¢": 2661,
      "ãĥĭãĥĥãĤ¯": 2662,
      "è¿İãģĪ": 2663,
      "åī£": 2664,
      "åįĥèĳī": 2665,
      "å«Į": 2666,
      "ãĥĲãĥ³ãĥī": 2667,
      "ä½ĵé¨ĵ": 2668,
      "åħħ": 2669,
      "ç¶Ń": 2670,
      "ãĥ³ãĥĶãĥĥãĤ¯": 2671,
      "å¤§å¤ī": 2672,
      "ãģĻãģĻãĤģ": 2673,
      "éĽª": 2674,
      "è©¦é¨ĵ": 2675,
      "ãĥ³ãĥį": 2676,
      "ãĤĤãģ¨": 2677,
      "ãĥĪãĥŃ": 2678,
      "æķ·": 2679,
      "åİ³": 2680,
      "æĬ±": 2681,
      "åĲ¸": 2682,
      "ãģªãģĹ": 2683,
      "ãĤ»ãĥĥãĥĪ": 2684,
      "æĽ¿ãģĪ": 2685,
      "æĺ¨": 2686,
      "å°ĳå¹´": 2687,
      "éľĬ": 2688,
      "åĲ¹": 2689,
      "äººåı£": 2690,
      "çŃĨ": 2691,
      "å¹¹": 2692,
      "ãģĤãģĴ": 2693,
      "ãĥĳãĥ¼ãĥĪ": 2694,
      "ãĤ³ãĥŃ": 2695,
      "è¦ĭãģĽ": 2696,
      "çı¾ä»£": 2697,
      "å¿«": 2698,
      "é¾": 2699,
      "ãģĤãģ¨": 2700,
      "ä»Ĭå¹´": 2701,
      "éģĭè¡Į": 2702,
      "æ¾": 2703,
      "ãĥªãĥĨãĤ£": 2704,
      "è¿ĳãģı": 2705,
      "åħ±åĴĮ": 2706,
      "å·±": 2707,
      "ãĥ³ãĥĵ": 2708,
      "æ¶²": 2709,
      "åĪ¶åº¦": 2710,
      "è¨Ńè¨Ī": 2711,
      "ä¼ļèŃ°": 2712,
      "éľ²": 2713,
      "æĸ°æ½": 2714,
      "ãĤ¯ãĤ¹": 2715,
      "å¯¾çŃĸ": 2716,
      "ãĥľãĥ¼": 2717,
      "ãĥ¬ãĥĥ": 2718,
      "æļĹ": 2719,
      "ãĤįãģĹ": 2720,
      "åĢį": 2721,
      "è¤ĩæķ°": 2722,
      "ãĥ¼ãĥĢãĥ¼": 2723,
      "åĪĹè»Ĭ": 2724,
      "å¬": 2725,
      "çĶ¨æĦı": 2726,
      "ãĤ¢ãĤ¸ãĤ¢": 2727,
      "é¾į": 2728,
      "åĽ½æ°ĳ": 2729,
      "å·¥æ¥Ń": 2730,
      "ãĤ¯ãĥ©ãĤ¹": 2731,
      "ãģģ": 2732,
      "çĭ¬ç«ĭ": 2733,
      "ãĤªãĥªãĤ¸": 2734,
      "ä¼ļåĵ¡": 2735,
      "åĲ¦": 2736,
      "èĩ¨": 2737,
      "åĨ¬": 2738,
      "ç¸Ħ": 2739,
      "ãĥ¯ãĥ¼ãĥ«ãĥī": 2740,
      "éĽ»æ°Ĺ": 2741,
      "è·Ŀ": 2742,
      "æļ´": 2743,
      "ãĥĲãĥ³": 2744,
      "è¡¨çı¾": 2745,
      "éĪ´": 2746,
      "ãģļãĤĮ": 2747,
      "éģİãģĶ": 2748,
      "åĲ«ãģ¾ãĤĮ": 2749,
      "ä¹Ł": 2750,
      "æľŁå¾ħ": 2751,
      "è¦ıæ¨¡": 2752,
      "ãĥŁãĥ¼": 2753,
      "éłĪ": 2754,
      "çĽ®æĮĩ": 2755,
      "ãĥ¶æľĪ": 2756,
      "ãĥ³ãĥĢãĥ¼": 2757,
      "åĪ»": 2758,
      "æĸĩåŃ¦": 2759,
      "å¤īãģĪ": 2760,
      "ãģ¯ãģĺãĤģ": 2761,
      "éĤ£": 2762,
      "æĬĺ": 2763,
      "å¼ĺ": 2764,
      "åĦĦ": 2765,
      "ãĥķãĥ©": 2766,
      "æĪĲéķ·": 2767,
      "æĽ´æĸ°": 2768,
      "ãĥ©ãĤ¤ãĥĪ": 2769,
      "æ´Ĺ": 2770,
      "å¿ł": 2771,
      "ãģªãĤĬ": 2772,
      "ãĤīãģı": 2773,
      "èªķçĶŁ": 2774,
      "ãĥ¬ãĥ¼ãĤ·ãĥ§ãĥ³": 2775,
      "å¦¹": 2776,
      "åħ¬æ¼Ķ": 2777,
      "ãĤ¬ãĥ³": 2778,
      "âĹĭ": 2779,
      "èį·": 2780,
      "ãĥĹãĥŃãĤ°ãĥ©": 2781,
      "ä»ı": 2782,
      "å¥³åĦª": 2783,
      "ãĤªãĥªãĥ³ãĥĶãĥĥãĤ¯": 2784,
      "ãģľãģ²": 2785,
      "ãĤ¢ãĤ«": 2786,
      "åĲįç§°": 2787,
      "è·ĿéĽ¢": 2788,
      "ãģ°ãģĭãĤĬ": 2789,
      "ç¤¾éķ·": 2790,
      "å¼±": 2791,
      "çľĮéģĵ": 2792,
      "å¯Ŀ": 2793,
      "ãĥ§ãĥ³": 2794,
      "ãĥĳãĤ¤": 2795,
      "ãĥ¡ãĥ©": 2796,
      "ãģĻãģĲãģ«": 2797,
      "èĪĪåĳ³": 2798,
      "ç¥ĸ": 2799,
      "èªĺ": 2800,
      "ãĥķãĥŃ": 2801,
      "éĥµ": 2802,
      "è¡£": 2803,
      "é«ª": 2804,
      "åħ±åĲĮ": 2805,
      "éĺ¿": 2806,
      "âĻª": 2807,
      "ãĤªãĥªãĤ¸ãĥĬãĥ«": 2808,
      "éļł": 2809,
      "æľ¬äºº": 2810,
      "ãģĭãģĹ": 2811,
      "çŁ¢": 2812,
      "ãĥ¡ãĤ¤ãĥ³": 2813,
      "ãĥĻãĤ¹ãĥĪ": 2814,
      "åķıãģĦ": 2815,
      "åĪ¤æĸŃ": 2816,
      "è£ģåĪ¤": 2817,
      "ãĥģãĤ§ãĥĥãĤ¯": 2818,
      "ãĥ¤ãĥ¼": 2819,
      "æµ·è»į": 2820,
      "æ¥ŃèĢħ": 2821,
      "å§ī": 2822,
      "ãĥĥãĤ»": 2823,
      "æľ¬ä½ľ": 2824,
      "ä¸»ãģª": 2825,
      "åħį": 2826,
      "ãĥ³ãĥĸ": 2827,
      "çĶ£æ¥Ń": 2828,
      "åĲĪä½µ": 2829,
      "ãĥĪãĥĥãĥĹ": 2830,
      "åĭķçī©": 2831,
      "çļ®": 2832,
      "ãĤ®ãĥ¥": 2833,
      "æĹħè¡Į": 2834,
      "ç¥¨": 2835,
      "ãĤ¤ãĤº": 2836,
      "ãĥ¼ãĥįãĥĥãĥĪ": 2837,
      "éŃļ": 2838,
      "ä¿³": 2839,
      "åĲĪãģĦ": 2840,
      "éĸĭæ¥Ń": 2841,
      "æľĿé®®": 2842,
      "ãĤ¦ãĥ³ãĥī": 2843,
      "ä¹ĹãĤĬ": 2844,
      "è¿°ãģ¹": 2845,
      "åĭīå¼·": 2846,
      "éļľå®³": 2847,
      "ãģ¿ãģª": 2848,
      "è§£èª¬": 2849,
      "ãĥ¬ãĥ¼ãĤ¹": 2850,
      "ç¤¼": 2851,
      "ãĥ³ãĥŀ": 2852,
      "é£Ľè¡Į": 2853,
      "éĽ»åŃĲ": 2854,
      "æĮĻãģĴ": 2855,
      "ãĥķãĤ¡ãĤ¤": 2856,
      "ä¹Ŀå·ŀ": 2857,
      "ãĤĬè¿Ķ": 2858,
      "ç©ºæ¸¯": 2859,
      "åİļ": 2860,
      "åĭĿåĪ©": 2861,
      "ãģ¾ãģ¨ãĤģ": 2862,
      "ãĤ®ãĥ£": 2863,
      "åī¤": 2864,
      "è¿·": 2865,
      "å¤ļæķ°": 2866,
      "å·¥äºĭ": 2867,
      "æļ®": 2868,
      "ãĤ¹ãĤŃ": 2869,
      "å¿ħãģļ": 2870,
      "ç¹°": 2871,
      "ä½ıå®ħ": 2872,
      "ä»Ļ": 2873,
      "çľĮç«ĭ": 2874,
      "è¡ĮæĶ¿": 2875,
      "ãĤ¢ãĤ¯ãĤ»ãĤ¹": 2876,
      "ãĥ¡ãĥĩãĤ£ãĤ¢": 2877,
      "ç«ľ": 2878,
      "å¤§ãģįãģı": 2879,
      "åİŁä½ľ": 2880,
      "å½¼ãĤī": 2881,
      "ãĤ¤ãĥ³ãĥī": 2882,
      "ãĤ¸ãĤ§ãĤ¯ãĥĪ": 2883,
      "ãĥķãĤ¸ãĥĨãĥ¬ãĥĵ": 2884,
      "é¬": 2885,
      "äººãĢħ": 2886,
      "çĶ»åĥı": 2887,
      "ãĥĸãĥ¬": 2888,
      "å¿ĺ": 2889,
      "ãĤ¤ãĥ©": 2890,
      "å°ĳå¥³": 2891,
      "æ²¹": 2892,
      "ãĥŃãĥĥãĤ¯": 2893,
      "ãĤ¹ãĤ±": 2894,
      "ãĤªãĥ¼ãĥĹãĥ³": 2895,
      "æĪĲç¸¾": 2896,
      "èĩªãĤī": 2897,
      "æĪ¦ãģĦ": 2898,
      "ãĥ¯ãĥ¼ãĥī": 2899,
      "èĵ": 2900,
      "çŀ": 2901,
      "ãĤ¨ãĥ³ãĤ¸ãĥ³": 2902,
      "çĽ´æİ¥": 2903,
      "é»Ħ": 2904,
      "ç½²": 2905,
      "èĴ": 2906,
      "æĲŃè¼ī": 2907,
      "éĢ±éĸĵ": 2908,
      "ä¹³": 2909,
      "å¤ĸåĽ½": 2910,
      "éģİãģİ": 2911,
      "âĸ": 2912,
      "æħ¶": 2913,
      "ãĥĲãĥĥãĤ¯": 2914,
      "ãĤµãĤ¤ãĤº": 2915,
      "åĽ½éģĵ": 2916,
      "ãĥĩãĤª": 2917,
      "çĶŁå¾Ĵ": 2918,
      "å£ģ": 2919,
      "ãĤ³ãĥŁãĥ¥": 2920,
      "æ®¿": 2921,
      "äººçĶŁ": 2922,
      "ãĤ¤ãĥ³ãĤ¿ãĥ¼ãĥįãĥĥãĥĪ": 2923,
      "å¤§æŃ£": 2924,
      "ç¨²": 2925,
      "æ±ºåĭĿ": 2926,
      "ãĤµãĥĿãĥ¼ãĥĪ": 2927,
      "ç²¾ç¥ŀ": 2928,
      "å¥ª": 2929,
      "å·¡": 2930,
      "é¶": 2931,
      "é£¯": 2932,
      "è²¬ä»»": 2933,
      "ãĥķãĤ¡ãĤ¤ãĥ«": 2934,
      "è¨ĺè¼ī": 2935,
      "æĶ¯æīķ": 2936,
      "æīĵãģ¡": 2937,
      "ãĥĵãĤ¸": 2938,
      "ãĥ³ãĥĲ": 2939,
      "è³ĩæĸĻ": 2940,
      "æ©Łä¼ļ": 2941,
      "æģ¯åŃĲ": 2942,
      "æ¼Ķå¥ı": 2943,
      "ãĥĲãĥ©": 2944,
      "éĽ²": 2945,
      "åĪĿæľŁ": 2946,
      "åŃ¦åľĴ": 2947,
      "æ¹ĸ": 2948,
      "ãģĵãģĿ": 2949,
      "éģ£": 2950,
      "åĽ½å®¶": 2951,
      "èıľ": 2952,
      "åĿĩ": 2953,
      "ãĤīãģĽ": 2954,
      "ãĥ¬ãĥĻãĥ«": 2955,
      "ãĤ¢ãĤ¦": 2956,
      "ãģ¿ãĤĵãģª": 2957,
      "èĦ³": 2958,
      "ä¸»ãģ«": 2959,
      "éĸ£": 2960,
      "||||": 2961,
      "éĢ²ãĤģ": 2962,
      "èµ·ãģį": 2963,
      "åĪ°": 2964,
      "ãģĦãģļãĤĮ": 2965,
      "éį": 2966,
      "ãĤ³ãĥŁãĥ¥ãĥĭ": 2967,
      "å·¥åł´": 2968,
      "è¢«å®³": 2969,
      "ãģ¤ãģ¤": 2970,
      "ãģ¿ãģŁãģĦ": 2971,
      "æĸĻéĩĳ": 2972,
      "ãĥ¡ãĥ¼ãĤ«ãĥ¼": 2973,
      "åľ°çĲĥ": 2974,
      "åį´": 2975,
      "ãģ®ãģ¡": 2976,
      "åĽ³æĽ¸": 2977,
      "ãĤ³ãĥ³ãĥĨ": 2978,
      "ãĥıãĥ³": 2979,
      "åĩ¦çĲĨ": 2980,
      "é¨İ": 2981,
      "çľł": 2982,
      "åıĸå¼ķ": 2983,
      "ä»ģ": 2984,
      "åŁºãģ¥": 2985,
      "æĽ¸ãģį": 2986,
      "æĶ¹åĸĦ": 2987,
      "ãĥŀãĤ¹": 2988,
      "ãĥ¡ãĥ¼ãĥĪãĥ«": 2989,
      "ãĥĨãĥ³": 2990,
      "æ¤ľç´¢": 2991,
      "æľīåĲį": 2992,
      "èª¿ãģ¹": 2993,
      "ç«¥": 2994,
      "èĩªæ²»": 2995,
      "æ¯Ķãģ¹": 2996,
      "ãĥķãĥªãĥ¼": 2997,
      "çĶ·åŃĲ": 2998,
      "è§£æ±º": 2999,
      "ãĥĵãĤ¢": 3000,
      "è©©": 3001,
      "èŃ°éĻ¢": 3002,
      "ãĤ¹ãĥĨãĥ¼ãĤ¸": 3003,
      "åĪº": 3004,
      "ãģ»ãģ¼": 3005,
      "ä¸»äººåħ¬": 3006,
      "ãģĦãģı": 3007,
      "ä¾Ŀéł¼": 3008,
      "æĨ²": 3009,
      "ãĥŁãĥĭ": 3010,
      "åħ¨ãģı": 3011,
      "èŃ°ä¼ļ": 3012,
      "éĢ£åĲĪ": 3013,
      "ãĥ³ãĥįãĥ«": 3014,
      "ãĤĩãģĨ": 3015,
      "ãĥ³ãĥľ": 3016,
      "æĦĽçŁ¥": 3017,
      "æħ£": 3018,
      "æĢ§æł¼": 3019,
      "ãĤ«ãĥª": 3020,
      "è¨´": 3021,
      "æŀł": 3022,
      "æĦıè¦ĭ": 3023,
      "ãĥ«ãĤ¹": 3024,
      "åĪĨãģĳ": 3025,
      "ãģĦãģ¯": 3026,
      "ãģ¹ãģį": 3027,
      "ãĤĨãĤĭ": 3028,
      "ãĤªãĥĸ": 3029,
      "å¿ĺãĤĮ": 3030,
      "çī¹å®ļ": 3031,
      "éļĨ": 3032,
      "ä¾ĭãģĪãģ°": 3033,
      "ãĤ¢ãĥķ": 3034,
      "é£Łäºĭ": 3035,
      "ãĤ¦ãĥł": 3036,
      "å¸Ĥåł´": 3037,
      "èĬ¸è¡ĵ": 3038,
      "è¶ħãģĪ": 3039,
      "éĢĶä¸Ń": 3040,
      "æķ´åĤĻ": 3041,
      "ãĥĶãĥ¼": 3042,
      "ãĤµãĥ«": 3043,
      "å¡©": 3044,
      "åĩºä¼ļãģĦ": 3045,
      "éĥ¨éļĬ": 3046,
      "æ³ķå¾ĭ": 3047,
      "ãĥĵãĤ¸ãĥįãĤ¹": 3048,
      "ãĤĦãģĭ": 3049,
      "åĳ¨å¹´": 3050,
      "åĵ²": 3051,
      "å°ĤçĶ¨": 3052,
      "ãĥĩãĤ¸": 3053,
      "ãĤ±ãĥ¼ãĤ·ãĥ§ãĥ³": 3054,
      "ãĥ©ãĥ«": 3055,
      "åīĬ": 3056,
      "èĦļæľ¬": 3057,
      "æĻº": 3058,
      "éłĳ": 3059,
      "ãĤ±ãĥ¼ãĤ¹": 3060,
      "çŁ¥èŃĺ": 3061,
      "ä½ľãĤĬ": 3062,
      "ä¸»æ¼Ķ": 3063,
      "ä¸Ĭè¨ĺ": 3064,
      "æºĸåĤĻ": 3065,
      "ãĤ«ãĥ©": 3066,
      "ãĤĦãĤĬ": 3067,
      "ãĤ³ãĥ¼ãĥĬãĥ¼": 3068,
      "ä¼ļéķ·": 3069,
      "æī¹": 3070,
      "é«ĺéĢŁ": 3071,
      "ä½ľå®¶": 3072,
      "ãĥ¼ãĥĻ": 3073,
      "åĲ«ãĤģ": 3074,
      "äºľ": 3075,
      "èįĴ": 3076,
      "åıĭäºº": 3077,
      "ãĥ¼ãĥ´": 3078,
      "ãĤ¸ãĥ¼": 3079,
      "åºķ": 3080,
      "äº¤æıĽ": 3081,
      "çĶ»éĿ¢": 3082,
      "è³ªåķı": 3083,
      "åľ°ä¸ĭ": 3084,
      "ãĥ³ãĥļ": 3085,
      "ãĤ¹ãĥļãĤ·ãĥ£ãĥ«": 3086,
      "ç·¨æĪĲ": 3087,
      "è²·ãģĦ": 3088,
      "ãĥ¨ãĥ¼ãĥŃ": 3089,
      "ãģ²ãģ¨ãģ¤": 3090,
      "äºĭå®Ł": 3091,
      "ç¸ģ": 3092,
      "éĥ¨éĸĢ": 3093,
      "å®ļæľŁ": 3094,
      "èº«ä½ĵ": 3095,
      "æ´»çĶ¨": 3096,
      "å§«": 3097,
      "ãĥĶãĤ¢": 3098,
      "åįģåĪĨ": 3099,
      "âĶ": 3100,
      "å®¶åºŃ": 3101,
      "ãĥĵãĥĩãĤª": 3102,
      "è¦ĭãģ¤ãģĳ": 3103,
      "ä¿º": 3104,
      "åķıãģĦåĲĪãĤıãģĽ": 3105,
      "ç·ĳ": 3106,
      "ãĤ³ãĥ³ãĥĶ": 3107,
      "åŁ¼": 3108,
      "çľĭ": 3109,
      "æĮĳ": 3110,
      "ä»¥æĿ¥": 3111,
      "æĺ¯": 3112,
      "ãĥĦãĤ¢ãĥ¼": 3113,
      "æ¬²ãģĹ": 3114,
      "èĩªå·±": 3115,
      "æ¶Īè²»": 3116,
      "æ¹¯": 3117,
      "è¡ĮçĤº": 3118,
      "ãĥ«ãĤ¯": 3119,
      "éĬĥ": 3120,
      "ãĥ¨ãĥ¼ãĥŃãĥĥãĥĳ": 3121,
      "éĳ": 3122,
      "ç¥ŀå¥Ī": 3123,
      "ãģªãģľ": 3124,
      "éĽĨãĤģ": 3125,
      "æŀĲ": 3126,
      "æ²ĸç¸Ħ": 3127,
      "æĿŁ": 3128,
      "ãĤĪãģĨãģ«": 3129,
      "æĿī": 3130,
      "çĤİ": 3131,
      "ãĥ¼ãĥŁ": 3132,
      "ãĤªãĥ¼ãĤ¹ãĥĪ": 3133,
      "ãĤ³ãĥ¡ãĥ³ãĥĪ": 3134,
      "ç§Ĵ": 3135,
      "ãģĦãģĪ": 3136,
      "æ¼Ķåĩº": 3137,
      "è²¸": 3138,
      "åĽ½ç«ĭ": 3139,
      "ãģ£ãģıãĤĬ": 3140,
      "å¤ķ": 3141,
      "å®Łçı¾": 3142,
      "ç¥ŀæĪ¸": 3143,
      "ä½ķåº¦": 3144,
      "åĨįãģ³": 3145,
      "ãĥĭãĥ³ãĤ°": 3146,
      "åĤ¾": 3147,
      "ç¸®": 3148,
      "ãĥĪãĤ¥": 3149,
      "æ¼¢": 3150,
      "æĸ°æ½Ł": 3151,
      "ç¥ŀå¥Īå·Ŀ": 3152,
      "æŃ¢ãĤģ": 3153,
      "éĽ¢ãĤĮ": 3154,
      "é£¾": 3155,
      "ãĥĹãĥŃãĤ¸ãĤ§ãĤ¯ãĥĪ": 3156,
      "ä¾¡åĢ¤": 3157,
      "ãĥ¼ãĥľ": 3158,
      "èªł": 3159,
      "éŃħ": 3160,
      "ä¿³åĦª": 3161,
      "ãĤ´ãĥ¼ãĥ«": 3162,
      "éĽĳèªĮ": 3163,
      "ãģĤãĤī": 3164,
      "å¤§èĩ£": 3165,
      "æķĻä¼ļ": 3166,
      "èħ¹": 3167,
      "æ³Ĭ": 3168,
      "ãĤ´ãĥ«": 3169,
      "é¬¼": 3170,
      "ãĥ©ãĥł": 3171,
      "çłĤ": 3172,
      "ãĤ¯ãĥªãĤ¹": 3173,
      "ãĤ·ãĥ§ãĥĥãĥĹ": 3174,
      "ãĥ¼ãĥĭãĥ³ãĤ°": 3175,
      "æŁĦ": 3176,
      "å¯¿": 3177,
      "ãģĦãģŁãģłãģĳ": 3178,
      "éģĭçĶ¨": 3179,
      "ãĥĪãĥ³": 3180,
      "ãĤ¨ãĥ³": 3181,
      "åĶ±": 3182,
      "æµħ": 3183,
      "ãģĤãĤĭãģĦãģ¯": 3184,
      "ç§»ç±į": 3185,
      "ãĤ«ãĥ¡ãĥ©": 3186,
      "ãĥªãĥ¼ãĥ³": 3187,
      "æ°ĳä¸»": 3188,
      "æ¤ľè¨İ": 3189,
      "å½¢å¼ı": 3190,
      "æĬķç¨¿": 3191,
      "æ¸©æ³ī": 3192,
      "çµ±éłĺ": 3193,
      "ãĤĤãĤĬ": 3194,
      "éĸ¢ãĤı": 3195,
      "æ¿ĥ": 3196,
      "åĭ§": 3197,
      "ãĥĹãĥ©ãĤ¤": 3198,
      "å¸Ĥæ°ĳ": 3199,
      "éĥµä¾¿": 3200,
      "åŁ¼çİī": 3201,
      "ãģªãĤĭ": 3202,
      "åĢĻè£ľ": 3203,
      "å¤§çµ±éłĺ": 3204,
      "çµĮæŃ´": 3205,
      "ãĥģãĥ§": 3206,
      "ãĥĶãĥ³": 3207,
      "æ²¼": 3208,
      "ãĥ¡ãĥª": 3209,
      "ãĥĭãĥ¥ãĥ¼ãĥ": 3210,
      "ä¸ĺ": 3211,
      "æ¥½ãģĹãģ¿": 3212,
      "ãĥ¥ãĥ¼ãĤµãĥ¼": 3213,
      "ä¼ļåł´": 3214,
      "æ¬§": 3215,
      "æĺĶ": 3216,
      "ãĥķãĤ©ãĥ¼ãĥł": 3217,
      "æĮĩæı®": 3218,
      "ãĤºãĥł": 3219,
      "ãĤ¹ãĤ¿ãĥ¼ãĥĪ": 3220,
      "ãĤ´ãĥ³": 3221,
      "å¤©çļĩ": 3222,
      "çµ±åĲĪ": 3223,
      "ãĥĹãĥŃãĥĩãĥ¥ãĥ¼ãĤµãĥ¼": 3224,
      "ãĤ²ãĤ¹ãĥĪ": 3225,
      "ãĤ¢ãĥ©": 3226,
      "ãĤ°ãĥ¬": 3227,
      "ä¸įåĭķ": 3228,
      "ãĤ¹ãĤ¿ãĤ¸ãĤª": 3229,
      "éĿĻå²¡": 3230,
      "ãģ«ãĤĪãĤĭ": 3231,
      "ãĥ¦ãĥ¼ãĤ¶ãĥ¼": 3232,
      "ãģĤãģ®": 3233,
      "éĻ£": 3234,
      "åºĬ": 3235,
      "ãĥĲãĥ¼ãĤ¸": 3236,
      "éĳĳ": 3237,
      "ç¦ıå³¶": 3238,
      "éĻĲãĤĬ": 3239,
      "ãĥ¯ãĤ¤": 3240,
      "å¬ī": 3241,
      "å¯©æŁ»": 3242,
      "ãĥĸãĥ©ãĥ³ãĥī": 3243,
      "çĶ±æĿ¥": 3244,
      "ãĤ¤ãĥ³ãĤ°": 3245,
      "ç¥Ŀ": 3246,
      "ä¸ĭè¨ĺ": 3247,
      "æ§ĺåŃĲ": 3248,
      "ãĥ³ãĥĬ": 3249,
      "ãĤ¨ãĥįãĥ«": 3250,
      "çªĵ": 3251,
      "ãĥīãĥª": 3252,
      "ãĤ«ãĥĬ": 3253,
      "ä¸įå®ī": 3254,
      "ãĥĢãĥł": 3255,
      "ãĤ³ãĥ¬": 3256,
      "ãĤ¹ãĤ¿ãĤ¤ãĥ«": 3257,
      "æĬķè³ĩ": 3258,
      "åıĭéģĶ": 3259,
      "ãģĦãĤįãģĦãĤį": 3260,
      "æ¡ĪåĨħ": 3261,
      "èĻ«": 3262,
      "åĮħ": 3263,
      "ãģĦãģĭ": 3264,
      "ãģĻãģĶ": 3265,
      "ãĥĬãĤ¤": 3266,
      "èī²ãĢħ": 3267,
      "åľŁåľ°": 3268,
      "ãĥĢãĥ«": 3269,
      "ãģªãģĭ": 3270,
      "å¾ĴæŃ©": 3271,
      "çĪµ": 3272,
      "ä¾µ": 3273,
      "ä¸»å¼µ": 3274,
      "åĬª": 3275,
      "æĸ¹åĲĳ": 3276,
      "èĥŀ": 3277,
      "çĮ«": 3278,
      "å¥ĩ": 3279,
      "ãĥ¡ãĤ¤": 3280,
      "èħķ": 3281,
      "æĺİãĤīãģĭ": 3282,
      "å¹´é½¢": 3283,
      "å¤§æĪ¦": 3284,
      "ãĥĳãĤ¹": 3285,
      "æĤ£èĢħ": 3286,
      "è¨ªãĤĮ": 3287,
      "éłĳå¼µ": 3288,
      "æ³¨æĸĩ": 3289,
      "éĸ¢è¥¿": 3290,
      "åľı": 3291,
      "ä¸Ī": 3292,
      "åŃ«": 3293,
      "éºĹ": 3294,
      "æĳ©": 3295,
      "è©³ãģĹ": 3296,
      "è¡¨è¨ĺ": 3297,
      "çĶºæĿĳ": 3298,
      "ãĤ¨ãĤ¤": 3299,
      "ãģĭãģªãģĭ": 3300,
      "è¸ı": 3301,
      "ãģªãģĭãģªãģĭ": 3302,
      "èŃ²": 3303,
      "ãĥĹãĥŃãĤ°ãĥ©ãĥł": 3304,
      "ãĥ¼ãĥĵ": 3305,
      "ç·´ç¿Ĵ": 3306,
      "ãĤ¨ãĥįãĥ«ãĤ®ãĥ¼": 3307,
      "ãĤ°ãĥŃ": 3308,
      "æĭĽ": 3309,
      "ãĤ¦ãĤ§ãĤ¢": 3310,
      "å¤±æķĹ": 3311,
      "ãĤīãģĦ": 3312,
      "çī§": 3313,
      "ãĥ¼ãĥĲãĥ¼": 3314,
      "ãĤ¬ãĤ¹": 3315,
      "çĻºå±ķ": 3316,
      "ãĥ¼ãĥ©ãĥ³ãĥī": 3317,
      "å¬īãģĹ": 3318,
      "æħ®": 3319,
      "ä»£çĽ®": 3320,
      "ãģ¡ãģª": 3321,
      "æĬĳ": 3322,
      "çĩĥ": 3323,
      "éĩĳèŀį": 3324,
      "éĭ": 3325,
      "åĭĩ": 3326,
      "èĩªåĭķè»Ĭ": 3327,
      "åľ°åħĥ": 3328,
      "ãĤ³ãĥ³ãĥĶãĥ¥ãĥ¼": 3329,
      "çµĦåĲĪ": 3330,
      "è¨Ģèªŀ": 3331,
      "äºĮäºº": 3332,
      "ãĤħãģĨ": 3333,
      "ãĥ¯ãĥ³": 3334,
      "æ¾¤": 3335,
      "ãģįãģ£": 3336,
      "åŁºæºĸ": 3337,
      "éĢļãģĺ": 3338,
      "çŃĶãģĪ": 3339,
      "å»ºçī©": 3340,
      "å±ķç¤º": 3341,
      "ä¼¯": 3342,
      "ç¹ģ": 3343,
      "å½ĵç¤¾": 3344,
      "é¶´": 3345,
      "ãĤ¨ãĥĥãĥĪ": 3346,
      "åį³": 3347,
      "å®īå®ļ": 3348,
      "æ¤ľæŁ»": 3349,
      "ãĤ¢ãĥł": 3350,
      "ãĥĲãĥ¬": 3351,
      "ãĥŃãĥ¼ãĥŀ": 3352,
      "å¤§äºº": 3353,
      "ç¶Ļç¶ļ": 3354,
      "ãģ¯ãĤĬ": 3355,
      "æįľ": 3356,
      "æ½ľ": 3357,
      "éķ·éĩİ": 3358,
      "ãģĽãģĦ": 3359,
      "åĪ¶éĻĲ": 3360,
      "åĶ¯": 3361,
      "è´": 3362,
      "æīį": 3363,
      "æ³¨éĩĪ": 3364,
      "æ¢ħ": 3365,
      "æł¸": 3366,
      "å´©": 3367,
      "å¹Į": 3368,
      "å¼ģèŃ·": 3369,
      "èª¤": 3370,
      "åıĮ": 3371,
      "ãĤ¯ãĥ©ãĤ¤": 3372,
      "å®ļãĤģ": 3373,
      "æĭ¡å¤§": 3374,
      "ä½¿ãģĪ": 3375,
      "^^": 3376,
      "ãĤ¬ãĥ«": 3377,
      "çµĲæĪĲ": 3378,
      "è²»çĶ¨": 3379,
      "ãĥĢãĥ³": 3380,
      "ãĥŀãĥį": 3381,
      "ãģ»ãģĹ": 3382,
      "ä»²éĸĵ": 3383,
      "éĸĭè¨Ń": 3384,
      "ãĤ·ãĥ¼ãĥ³": 3385,
      "åıĪ": 3386,
      "ãĤ¢ãĤ¤ãĥīãĥ«": 3387,
      "ãĤ¢ãĥª": 3388,
      "ãĤ¹ãĥļãĤ¤ãĥ³": 3389,
      "çĽ®æ¨Ļ": 3390,
      "èĩªä½ĵ": 3391,
      "åį±éĻº": 3392,
      "éĻ¸è»į": 3393,
      "éı": 3394,
      "ãĥķãĥ©ãĥ³": 3395,
      "åįļå£«": 3396,
      "è©²": 3397,
      "åĦĢ": 3398,
      "çľ¼": 3399,
      "æĳĺ": 3400,
      "éĢ£éĤ¦": 3401,
      "å±±åı£": 3402,
      "ãĥķãĤ©ãĥ³": 3403,
      "éĩĿ": 3404,
      "è³ĩæł¼": 3405,
      "åħ¥åĬĽ": 3406,
      "å¹³åĿĩ": 3407,
      "çı¾ãĤĮ": 3408,
      "ãĥĳãĥ©": 3409,
      "ä¸»è¦ģ": 3410,
      "æĺ¯éĿŀ": 3411,
      "ãģ©ãģ¡ãĤī": 3412,
      "æİ¥ç¶ļ": 3413,
      "ãĤ¨ãĤ¢": 3414,
      "æĶ¹ç§°": 3415,
      "å¯Įå£«": 3416,
      "ãĤ¸ãĥ£ãĥ³": 3417,
      "çµ¶å¯¾": 3418,
      "ãĥ³ãĥŃ": 3419,
      "æĽ¸åºĹ": 3420,
      "ãĥŁãĥ³ãĤ°": 3421,
      "ç¯ĦåĽ²": 3422,
      "åłĢ": 3423,
      "ä½ķãģĭ": 3424,
      "å¡ģ": 3425,
      "åĮºéĸĵ": 3426,
      "ãĥ¼ãĥŀãĥ³": 3427,
      "è¶£": 3428,
      "ãĥŁãĥ¥ãĥ¼ãĤ¸ãĥĥãĤ¯": 3429,
      "ä¿Ĭ": 3430,
      "ãĥĭãĥ¥ãĥ¼ãĥ¨": 3431,
      "æ°Ĺè»½": 3432,
      "è¨Ĺ": 3433,
      "ãĤ±ãĤ¢": 3434,
      "å°ģ": 3435,
      "æİĴ": 3436,
      "éĽ»è»Ĭ": 3437,
      "è£ħåĤĻ": 3438,
      "æıĲæ¡Ī": 3439,
      "ãĥŃãĤ°": 3440,
      "æ¤įçī©": 3441,
      "ç¢ºãģĭ": 3442,
      "ãĥĭãĥ¥ãĥ¼ãĥ¨ãĥ¼ãĤ¯": 3443,
      "è£ħç½®": 3444,
      "æŁ³": 3445,
      "æ¸ĭ": 3446,
      "é©": 3447,
      "ãĤ»ãĥ³ãĥĪ": 3448,
      "åĪĨéĩİ": 3449,
      "å½©": 3450,
      "åºĥåĳĬ": 3451,
      "ãĥĪãĥ©ãĥĥãĤ¯": 3452,
      "æĿ±åĮĹ": 3453,
      "éĸ¢æĿ±": 3454,
      "æĨ¶": 3455,
      "ä½ľæĪ¦": 3456,
      "è¨ĵ": 3457,
      "ä¸Ģéĥİ": 3458,
      "ä¿ĿåŃĺ": 3459,
      "ãĤªãĥ¼": 3460,
      "éĤĦ": 3461,
      "è¦ļãģĪ": 3462,
      "æĪĲç«ĭ": 3463,
      "ãĥĩãĥ³": 3464,
      "ãģ¨ãĤĬ": 3465,
      "ãĤªãĥ¼ãĥ«": 3466,
      "ãĥĩãĤ¸ãĤ¿ãĥ«": 3467,
      "åıįå¯¾": 3468,
      "ãģĭãģı": 3469,
      "ãĤ¨ãĥªãĤ¢": 3470,
      "ãĤĪãĤįãģĹ": 3471,
      "åĢ«": 3472,
      "æĦŁè¬Ŀ": 3473,
      "ä½ķãĤĤ": 3474,
      "ãĤĦãģ¯ãĤĬ": 3475,
      "ãģłãģĭãĤī": 3476,
      "ãĥĭãĤ³": 3477,
      "åıĸç·ł": 3478,
      "ãģĸãģ¾": 3479,
      "åŃ¦ç¿Ĵ": 3480,
      "çĶŁçī©": 3481,
      "ãģ¤ãģ¾ãĤĬ": 3482,
      "çį£": 3483,
      "ãģĶè¦§": 3484,
      "åĪĿä»£": 3485,
      "è¦ıå®ļ": 3486,
      "æĸ¹éĿ¢": 3487,
      "ãĤ¿ãĥ¼ãĥ³": 3488,
      "æĶ¿çŃĸ": 3489,
      "åĲĳä¸Ĭ": 3490,
      "......": 3491,
      "æĹ©ãģı": 3492,
      "èĮĤ": 3493,
      "éĢ£ãĤĮ": 3494,
      "çĹĩçĬ¶": 3495,
      "ãģįãģ£ãģĭãģĳ": 3496,
      "ç©ºéĸĵ": 3497,
      "ãĥıãĤ¦ãĤ¹": 3498,
      "ãģĿãĤĤ": 3499,
      "äº¤æµģ": 3500,
      "åĭŁéĽĨ": 3501,
      "æĽ¸ç±į": 3502,
      "ãģĶãģĸãģĦãģ¾ãģĹãģŁ": 3503,
      "åŃ¦èĢħ": 3504,
      "è¼Ŀ": 3505,
      "å¿ĥéħį": 3506,
      "é¡§": 3507,
      "ãĤ¯ãĥªãĥĥãĤ¯": 3508,
      "æĿ¯": 3509,
      "å¼ķéĢĢ": 3510,
      "ãĤ¸ãĥ³": 3511,
      "ãĤ½ãĥ³ãĤ°": 3512,
      "èªŃãģ¿": 3513,
      "å¡Ĺ": 3514,
      "ä¸ŃåŃ¦": 3515,
      "éŃħåĬĽ": 3516,
      "ãĥ¼ãĥĸãĥ«": 3517,
      "ãĤ·ãĥĨãĤ£": 3518,
      "éı¡": 3519,
      "æŃ»åİ»": 3520,
      "æĳĤ": 3521,
      "å®Łè¡Į": 3522,
      "ãĥĺãĥ«": 3523,
      "ãģªãģķ": 3524,
      "ãĤªãĥķ": 3525,
      "ç§»è»¢": 3526,
      "ãĥĹãĥ¬ãĤ¼": 3527,
      "å¢ĹåĬł": 3528,
      "æ³¨çĽ®": 3529,
      "èªī": 3530,
      "ç·Ĭ": 3531,
      "ãĥŃãĥ¼ãĥ³": 3532,
      "æı¡": 3533,
      "èĩªå®ħ": 3534,
      "åĮ»å¸«": 3535,
      "æī±ãģĦ": 3536,
      "çĽĹ": 3537,
      "è±ª": 3538,
      "åŃ¦ä¼ļ": 3539,
      "ãĥ¡ãĥĥãĤ»": 3540,
      "æĻ®æ®µ": 3541,
      "å¤§äºĭ": 3542,
      "ãģĿãģ®ãģ¾ãģ¾": 3543,
      "éĽħ": 3544,
      "ãĥ´ãĤ©": 3545,
      "åį°è±¡": 3546,
      "éĪ´æľ¨": 3547,
      "ç´ħ": 3548,
      "ãģĿãģĵãģ§": 3549,
      "æľªæĿ¥": 3550,
      "ãģĦãĤı": 3551,
      "ãģĦãģıãģ¤ãģĭ": 3552,
      "ä¸įåĭķçĶ£": 3553,
      "ãģĬãĤĬ": 3554,
      "ãģļãģ¤": 3555,
      "ãĥŀãĥ¼ãĤ¯": 3556,
      "æĲºå¸¯": 3557,
      "ãĤ¨ãĥ³ãĤ¿": 3558,
      "ç¨¼": 3559,
      "ç¶ŃæĮģ": 3560,
      "æĸ°ãģŁãģª": 3561,
      "å°Ĭ": 3562,
      "éĢ£è¼ī": 3563,
      "æĺ¼": 3564,
      "åĪĨé¡ŀ": 3565,
      "æ¢¨": 3566,
      "ãģ©ãĤĮ": 3567,
      "ãĤ¹ãĥĪãĥ¼ãĥªãĥ¼": 3568,
      "åĦªç§Ģ": 3569,
      "æŃ»äº¡": 3570,
      "ãģįãĤĬ": 3571,
      "èĸĦ": 3572,
      "ãģĦãģĳãģª": 3573,
      "å¤ªéĻ½": 3574,
      "éŃĶæ³ķ": 3575,
      "ãĥ£ãĥ¼": 3576,
      "ãĤŃãĤ·": 3577,
      "ãĥ¬ãĥ³ãĤ¸": 3578,
      "å¾ħãģ¡": 3579,
      "å½ĵãģŁãĤĬ": 3580,
      "å¯¾æĪ¦": 3581,
      "æľ¬éĥ¨": 3582,
      "ãĥ¼ãĥİ": 3583,
      "ãĤ¢ãĥ³ãĥī": 3584,
      "åľ°éľĩ": 3585,
      "æĽ¸æĪ¿": 3586,
      "åħµåº«": 3587,
      "ãģĿãģĨãģĦãģĨ": 3588,
      "æķĻåĵ¡": 3589,
      "ãĤ¸ãĥĥãĥĪ": 3590,
      "ãģĻãģ¹ãģ¦ãģ®": 3591,
      "åı°æ¹¾": 3592,
      "ä¸Ńç¶Ļ": 3593,
      "å°ıãģķãģª": 3594,
      "ãĥ©ãĥ³ãĤŃãĥ³ãĤ°": 3595,
      "å²¡å±±": 3596,
      "åĭķãģį": 3597,
      "ãĥŁãĤ¹": 3598,
      "æĵįä½ľ": 3599,
      "é©ļ": 3600,
      "éģĶæĪĲ": 3601,
      "ãĥĹãĥĪ": 3602,
      "ãĥŃãĥ¼ãĥī": 3603,
      "åĬ©ãģĳ": 3604,
      "æľīåĬ¹": 3605,
      "ç¤İ": 3606,
      "ãĥĢãĤ¦": 3607,
      "å¸ĤåĨħ": 3608,
      "æĶ¯éħį": 3609,
      "ãĤªãĥ«": 3610,
      "ç¡": 3611,
      "æľ¬ç¤¾": 3612,
      "åĮĸåŃ¦": 3613,
      "åıįå¿ľ": 3614,
      "åĢŁãĤĬ": 3615,
      "éģ¸åĩº": 3616,
      "ãĥĲãĥĥ": 3617,
      "è¿«": 3618,
      "ãģ§ãģ«": 3619,
      "æĢĴ": 3620,
      "æĶ¹æŃ£": 3621,
      "ãĥķãĤ£ãĥ«": 3622,
      "èĺ": 3623,
      "çĨĬæľ¬": 3624,
      "æķ¬": 3625,
      "ãĥĨãĥł": 3626,
      "è²¢": 3627,
      "è³ĥ": 3628,
      "åľŁæĽľ": 3629,
      "ç«¶é¦¬": 3630,
      "æīĢåľ¨": 3631,
      "è¡Įãģį": 3632,
      "èĦ±æ¯Ľ": 3633,
      "æŁĶ": 3634,
      "ãĥĳãĤ½": 3635,
      "ãģĦãģ¡": 3636,
      "èıĮ": 3637,
      "çĳ": 3638,
      "ç®±": 3639,
      "ãģ¾ãģĦ": 3640,
      "è¨ĢãģĦ": 3641,
      "æ®µéļİ": 3642,
      "å¿ľãģĺ": 3643,
      "æķ´çĲĨ": 3644,
      "åģµ": 3645,
      "çīĽ": 3646,
      "å½¢æĪĲ": 3647,
      "ãĥĲãĥ¼ãĤ¸ãĥ§ãĥ³": 3648,
      "ç¾İãģĹ": 3649,
      "è©±é¡Į": 3650,
      "åľ°çĲĨ": 3651,
      "ç¿¼": 3652,
      "ç´°èĥŀ": 3653,
      "ãĥķãĥª": 3654,
      "âĪ": 3655,
      "æ¯İå¹´": 3656,
      "ãĥŁãĥ³": 3657,
      "äºĭåīį": 3658,
      "ãĤ¸ãĥ£ãĥĳãĥ³": 3659,
      "ãĤ«ãĥ©ãĥ¼": 3660,
      "æŃĮæīĭ": 3661,
      "æ®Ĭ": 3662,
      "ç±³åĽ½": 3663,
      "è¨ĺæĨ¶": 3664,
      "ãĥŃãĥľ": 3665,
      "åĤµ": 3666,
      "å½ĵãģŁ": 3667,
      "éķ·å´İ": 3668,
      "åª": 3669,
      "ãĥ«ãĥī": 3670,
      "ãĤ®ãĥª": 3671,
      "ç³»çµ±": 3672,
      "ãĥ¼ãĥ«ãĤº": 3673,
      "æĢĸ": 3674,
      "æīĢæľī": 3675,
      "èĢĲ": 3676,
      "éĽ°": 3677,
      "åĽ²æ°Ĺ": 3678,
      "éĽ°åĽ²æ°Ĺ": 3679,
      "æľŃå¹Į": 3680,
      "åħ·ä½ĵ": 3681,
      "è©°": 3682,
      "ä»ĺè¿ĳ": 3683,
      "æ¢°": 3684,
      "è¦ģç´ł": 3685,
      "ãģ«ãģı": 3686,
      "é¼": 3687,
      "éĨ": 3688,
      "ãģ¾ãģļãģ¯": 3689,
      "ãĤ¦ãĥ³ãĤµãĥ¼": 3690,
      "å¶": 3691,
      "ãģķãģ¾ãģĸãģ¾": 3692,
      "åŃĿ": 3693,
      "å°ıåŃ¦": 3694,
      "ãĥ³ãĥĪãĥ³": 3695,
      "å¾ĮåįĬ": 3696,
      "ãĤ«ãĤ¤": 3697,
      "ãģ¾ãģķ": 3698,
      "ãĥĥãĤ±": 3699,
      "çĶ°ä¸Ń": 3700,
      "ãĤ¢ãĥĬãĤ¦ãĥ³ãĤµãĥ¼": 3701,
      "ç¹°ãĤĬè¿Ķ": 3702,
      "ãģıãģ¯": 3703,
      "æī¹åĪ¤": 3704,
      "ãĥĥãĤµ": 3705,
      "çĸ²": 3706,
      "ãĥĳãĤ½ãĤ³ãĥ³": 3707,
      "æĮĩæĳĺ": 3708,
      "è¡Ŀ": 3709,
      "åĲĮãģĺãģı": 3710,
      "èªįèŃĺ": 3711,
      "ä½ĲèĹ¤": 3712,
      "ç¹ĭ": 3713,
      "æ·»": 3714,
      "ãĤ·ãĥ«": 3715,
      "ãĤ¦ãĤ§ãĥĸ": 3716,
      "åħ¨åĵ¡": 3717,
      "å»ºãģ¦": 3718,
      "çł´å£Ĭ": 3719,
      "æĦŁæŁĵ": 3720,
      "åł±éģĵ": 3721,
      "ãģ§ãģ¯": 3722,
      "ãģ¤ãģªãģĮ": 3723,
      "æĮĳæĪ¦": 3724,
      "æµ´": 3725,
      "èªįå®ļ": 3726,
      "æŃ£ãģĹ": 3727,
      "è¨Ńãģĳ": 3728,
      "æĢĿãģĦåĩº": 3729,
      "èĲ½ãģ¨": 3730,
      "ç©´": 3731,
      "åĮ»åŃ¦": 3732,
      "ãģķãģĪ": 3733,
      "ãĥĥãĤŃ": 3734,
      "ä¸ĢæĻĤ": 3735,
      "ãĤ³ãĥ³ãĥĶãĥ¥ãĥ¼ãĤ¿": 3736,
      "åįļçī©": 3737,
      "çĲĨäºĭ": 3738,
      "ãĤ°ãĥª": 3739,
      "åŁºç¤İ": 3740,
      "ãĥ©ãĥ³ãĥĢ": 3741,
      "ç¤¾åĵ¡": 3742,
      "è²łæĭħ": 3743,
      "ãĥ¬ãĤ®ãĥ¥": 3744,
      "æĹ¥æĽľ": 3745,
      "æ©Łæ¢°": 3746,
      "ãĤ·ãĥ§ãĥ¼": 3747,
      "å¯Ĵ": 3748,
      "éĺľ": 3749,
      "å½ĵãģ¦": 3750,
      "æ±ºãģ¾": 3751,
      "ãĥªãĤ¨": 3752,
      "ãģļãģ£ãģ¨": 3753,
      "äº¤å·®": 3754,
      "åĪĳäºĭ": 3755,
      "æŀ¶": 3756,
      "ãĤ¢ãĤ¦ãĥĪ": 3757,
      "ãģĶãģĸãģĦãģ¾ãģĻ": 3758,
      "ãĥªãĤ¢ãĥ«": 3759,
      "çı¾å®Ł": 3760,
      "ãĥ¡ãĥĥãĤ»ãĥ¼ãĤ¸": 3761,
      "åĶ¯ä¸Ģ": 3762,
      "ãĤ«ãĥ³": 3763,
      "å±Ĭãģĳ": 3764,
      "åĳĤ": 3765,
      "å¾¹": 3766,
      "ä¼ĳãģ¿": 3767,
      "èĤ²ãģ¦": 3768,
      "ãĥľãĤ¿ãĥ³": 3769,
      "ãģĻãģ§ãģ«": 3770,
      "è¢ĭ": 3771,
      "ãĥĨãĤ£ãĥ³ãĤ°": 3772,
      "æŃ£å¼ı": 3773,
      "å¿ľæı´": 3774,
      "æĺİæĹ¥": 3775,
      "ãĤ¦ãĥ³ãĥĪ": 3776,
      "å²Ĳéĺľ": 3777,
      "å·¥åŃ¦": 3778,
      "åħĲå³¶": 3779,
      "éĻ°": 3780,
      "ç³ĸ": 3781,
      "å¦Ĭ": 3782,
      "ãĤ³ãĥ¼ãĥ«": 3783,
      "å®Łé¨ĵ": 3784,
      "ãĥĨãĤ¯": 3785,
      "ä½ıæ°ĳ": 3786,
      "è¼©": 3787,
      "è¡ĨèŃ°éĻ¢": 3788,
      "ãĥķãĤ©ãĥ«": 3789,
      "ä½ľçĶ¨": 3790,
      "ä¹¾": 3791,
      "ãģ¤ãģı": 3792,
      "ä¸ĸä»£": 3793,
      "ãģĨãģ¾": 3794,
      "éĿ¢çĻ½": 3795,
      "ãĥ¼ãĥ¡": 3796,
      "è±Ĩ": 3797,
      "è²«": 3798,
      "ãĥĳãĥª": 3799,
      "æĹ¥ãĢħ": 3800,
      "çĦ¡çĲĨ": 3801,
      "ãĥĬãĤ¤ãĥĪ": 3802,
      "ãĤ²ãĥ³": 3803,
      "è¨Īç®Ĺ": 3804,
      "ãĥ¬ãĥĥãĥĪ": 3805,
      "éİ®": 3806,
      "é£Łåĵģ": 3807,
      "ãĤ¹ãĥĪãĥ©": 3808,
      "éĩĳé¡į": 3809,
      "åĬłåħ¥": 3810,
      "æĸ½è¡Į": 3811,
      "èĬĿ": 3812,
      "æ»ŀ": 3813,
      "æµ©": 3814,
      "çİĭåĽ½": 3815,
      "æĹĹ": 3816,
      "é³´": 3817,
      "ãĥ¡ãĥªãĥĥãĥĪ": 3818,
      "å¯Ľ": 3819,
      "ãģ«ãģ¤ãģĦãģ¦": 3820,
      "æºĢè¶³": 3821,
      "é£¼": 3822,
      "çı¾åł´": 3823,
      "è»Į": 3824,
      "ãĥŃãĤ¹": 3825,
      "åĴ²": 3826,
      "åŃ¦éĥ¨": 3827,
      "ä¿¡éł¼": 3828,
      "å£²ãĤĬ": 3829,
      "èĳĹä½ľ": 3830,
      "ãĥ¼ãĥĩãĥ³": 3831,
      "ãĤªãĤ¹": 3832,
      "æĤ²": 3833,
      "ãĤµãĥ©": 3834,
      "å¥Īèī¯": 3835,
      "ä»ķæ§ĺ": 3836,
      "çŁ¥ãĤīãģĽ": 3837,
      "åħĥå¹´": 3838,
      "å¢ĵ": 3839,
      "æĸ¹å¼ı": 3840,
      "ç³»åĪĹ": 3841,
      "æľ¬æĿ¥": 3842,
      "è¼¸éĢģ": 3843,
      "ãĤªãĥ³ãĥ©ãĤ¤ãĥ³": 3844,
      "ãĤªãĥķãĤ£": 3845,
      "åĳ¨ãĤĬ": 3846,
      "çŀ¬": 3847,
      "ä¾¿åĪ©": 3848,
      "èĢ³": 3849,
      "è³Ľ": 3850,
      "çĹħæ°Ĺ": 3851,
      "ãĤ¢ãĤ¤ãĥĨãĥł": 3852,
      "ãĥ«ãĥ¼": 3853,
      "ãģŁãģ¾": 3854,
      "åŃ¦ç§ĳ": 3855,
      "ãĤ¨ãĥ¬": 3856,
      "æ´¾éģ£": 3857,
      "æ°Ĺãģ¥": 3858,
      "ãģĿãĤĮãĤī": 3859,
      "å½¹åī²": 3860,
      "å¹¸ãģĽ": 3861,
      "éĩĳæĽľ": 3862,
      "ãĥİãĥ³": 3863,
      "çī¹æ®Ĭ": 3864,
      "ãģĬãģĭ": 3865,
      "çĪ¶è¦ª": 3866,
      "ãĥ¬ãĤ®ãĥ¥ãĥ©ãĥ¼": 3867,
      "ãĤ¢ãĥķãĥªãĤ«": 3868,
      "å¾®": 3869,
      "æĿ¥ãĤĭ": 3870,
      "ãģıãģª": 3871,
      "ãĤ¹ãĥĳ": 3872,
      "æģĭæĦĽ": 3873,
      "çĶŁãģĺ": 3874,
      "å¹²": 3875,
      "éĽ·": 3876,
      "ãĤ¯ãĥ¬ãĤ¸ãĥĥãĥĪ": 3877,
      "èª¿æķ´": 3878,
      "åĤĻãģĪ": 3879,
      "å¤§åŀĭ": 3880,
      "åŃ¦éĻ¢": 3881,
      "ãĥģãĥ³": 3882,
      "åľ°åĲį": 3883,
      "ãĤ¹ãĤŃãĥ¼": 3884,
      "ç¥ī": 3885,
      "ãģĮãĤĵ": 3886,
      "éĽĩ": 3887,
      "ãĤ¨ãĤ¹ãĥĪ": 3888,
      "åĪĢ": 3889,
      "åģľæŃ¢": 3890,
      "ãĥĨãĤ£ãĥĸ": 3891,
      "ç¦ıç¥ī": 3892,
      "ä»Ļåı°": 3893,
      "ãĤ¹ãĥļãĥ¼ãĤ¹": 3894,
      "ãĤ¨ãĥª": 3895,
      "æķı": 3896,
      "çĻºéĽ»": 3897,
      "æĴ¤": 3898,
      "ãĥ¬ãĤ³ãĥ¼ãĥī": 3899,
      "ãĥĹãĥ¬ãĥ¼": 3900,
      "ç¾İåĳ³": 3901,
      "âĺħ": 3902,
      "ä¸ŃæĿĳ": 3903,
      "æ¸ī": 3904,
      "ãģ£ãģĹãĤĥ": 3905,
      "æĸ°å®¿": 3906,
      "ãĥ¢ãĥİ": 3907,
      "çľĭèŃ·": 3908,
      "çµĲå±Ģ": 3909,
      "å¾©å¸°": 3910,
      "ãĥ¢ãĥ¼ãĥī": 3911,
      "ãĥ³ãĥīãĥ³": 3912,
      "è½": 3913,
      "åĲĪãĤıãģĽãģ¦": 3914,
      "ãĥŃãĥ¼ãĥ«": 3915,
      "ãĥĥãĥĶ": 3916,
      "æ¨Ļæºĸ": 3917,
      "æĪĲåĪĨ": 3918,
      "ãĥĿãĥ¼ãĥ«": 3919,
      "ãĥįãĥĥãĥĪãĥ¯ãĥ¼ãĤ¯": 3920,
      "å°ĨæĿ¥": 3921,
      "ãĥĸãĥ©ãĥĥãĤ¯": 3922,
      "å¦Ļ": 3923,
      "ä½ĵèĤ²": 3924,
      "åŁĭ": 3925,
      "è¾²æ¥Ń": 3926,
      "è¨¼æĺİ": 3927,
      "æıĽãģĪ": 3928,
      "é¹¿åħĲå³¶": 3929,
      "Ìģ": 3930,
      "åħ¥åŃ¦": 3931,
      "çĻºè¶³": 3932,
      "åħ±éĢļ": 3933,
      "å¼·åĮĸ": 3934,
      "ãĥĨãĤ¤": 3935,
      "ãĥ¬ãĤ¹ãĥĪ": 3936,
      "éĻ¸ä¸Ĭ": 3937,
      "åħĦå¼Ł": 3938,
      "ãĤ®ãĤ¿ãĥ¼": 3939,
      "çĶĺ": 3940,
      "æĭ¬": 3941,
      "åĨįçĶŁ": 3942,
      "è¦ĸèģ´": 3943,
      "çĭ¬èĩª": 3944,
      "åĩºãģĹ": 3945,
      "ç§ĭçĶ°": 3946,
      "äºĨæī¿": 3947,
      "ä¸»åĤ¬": 3948,
      "ãĥĨãĤ¹ãĥĪ": 3949,
      "èĦĤ": 3950,
      "ãĥīãĥ©ãĤ¤": 3951,
      "ãĥ©ãĥªãĤ¢": 3952,
      "æ¯Ĵ": 3953,
      "çĤŃ": 3954,
      "æķĻå®¤": 3955,
      "åįĪå¾Į": 3956,
      "çģ¯": 3957,
      "å±±çĶ°": 3958,
      "ä¼ļè©±": 3959,
      "å¯§": 3960,
      "ãĥ¬ãĥĥãĥī": 3961,
      "åĨĴ": 3962,
      "åĭ¤åĭĻ": 3963,
      "ãģĳãĤĮãģ©": 3964,
      "ãĥĥãĤŃãĥ¼": 3965,
      "æ©ŁåĻ¨": 3966,
      "å¾©æ´»": 3967,
      "ä¹ĥ": 3968,
      "æĹ¢ãģ«": 3969,
      "ãĥĩãĤ¤": 3970,
      "ãĥ³ãĥĩãĤ£ãĥ³ãĤ°": 3971,
      "ç¿»": 3972,
      "åºĥãģĮ": 3973,
      "è¶ĬãģĹ": 3974,
      "ä¸»é¡Į": 3975,
      "åĤ¾åĲĳ": 3976,
      "åĪĨæŀĲ": 3977,
      "ãģªãģģ": 3978,
      "æĸ¹ãĢħ": 3979,
      "æĶ¯æĮģ": 3980,
      "æĬķç¥¨": 3981,
      "ãģŁãĤī": 3982,
      "ãĥĹãĥ©ãĥ³": 3983,
      "æİ¨éĢ²": 3984,
      "ãģªãģıãģª": 3985,
      "éĢŁåº¦": 3986,
      "ç¾ħ": 3987,
      "æŀĿ": 3988,
      "åĨĬ": 3989,
      "èĽ": 3990,
      "åĲįèªī": 3991,
      "å½ĵæĹ¥": 3992,
      "åĦŁ": 3993,
      "ãģĭãĤı": 3994,
      "ç©įæ¥µ": 3995,
      "æĹ¥å¸¸": 3996,
      "çĽ¸å½ĵ": 3997,
      "ãģ¿ãģ«": 3998,
      "ç¢ºä¿Ŀ": 3999,
      "åĭ§ãĤģ": 4000,
      "ãĤ¹ãĥ¡": 4001,
      "æĿ±æĹ¥æľ¬": 4002,
      "é§Ĳè»Ĭ": 4003,
      "ä¸¹": 4004,
      "éħįç½®": 4005,
      "ä¸įè¶³": 4006,
      "ãĤ³ãĥ³ãĥĪ": 4007,
      "ãĤ·ãĥ£ãĥ³": 4008,
      "ãĥĶãĤ¢ãĥİ": 4009,
      "è²¢çĮ®": 4010,
      "åĲĦåľ°": 4011,
      "ç¦ģæŃ¢": 4012,
      "åĪ°çĿĢ": 4013,
      "ãģ£ãģ¡": 4014,
      "ãĤ½ãĥ¼ãĥī": 4015,
      "æį¨": 4016,
      "è³ĩéĩĳ": 4017,
      "ãĤ¤ãĥ©ãĤ¹ãĥĪ": 4018,
      "çŁ³å·Ŀ": 4019,
      "èĥ¸": 4020,
      "ãĤ³ãĥ¼ãĥ": 4021,
      "æĬľãģĳ": 4022,
      "ãĤ¨ãĥĶ": 4023,
      "å¡¾": 4024,
      "æ²¿éĿ©": 4025,
      "ãĥªãĥ¥": 4026,
      "ãĥ©ãĤ¤ãĥĢãĥ¼": 4027,
      "å°ļ": 4028,
      "ä¼Ŀèª¬": 4029,
      "äºĴãģĦ": 4030,
      "èĳ¬": 4031,
      "æĿ±æµ·": 4032,
      "ãĥ³ãĤ¿ãĥ«": 4033,
      "æŃ¦åĻ¨": 4034,
      "è´Ī": 4035,
      "ãĤĤãģĹãģıãģ¯": 4036,
      "æİĪæ¥Ń": 4037,
      "ç©Ĥ": 4038,
      "å¼¥": 4039,
      "çĭŃ": 4040,
      "ãĥģãĥ£ãĥ³ãĥįãĥ«": 4041,
      "åĳ¨åĽ²": 4042,
      "ä¼Ŀçµ±": 4043,
      "è²łãģĳ": 4044,
      "éĢ²åĩº": 4045,
      "ãĥĥãĤ¸": 4046,
      "ãĥĩãĥ¥": 4047,
      "åĪ·": 4048,
      "ãĥĭãĤ¹": 4049,
      "éİĸ": 4050,
      "äºĢ": 4051,
      "ãģĹãĤį": 4052,
      "ç¾İåĳ³ãģĹ": 4053,
      "éĺ²è¡Ľ": 4054,
      "åĥļ": 4055,
      "åĭ²": 4056,
      "ä»£ãĤıãĤĬ": 4057,
      "çµĮçĶ±": 4058,
      "ä¿ĥ": 4059,
      "ãĤĵãģ¨": 4060,
      "æ¯įè¦ª": 4061,
      "ãĥ¡ãĥĭãĥ¥ãĥ¼": 4062,
      "è¡Įãģª": 4063,
      "å¸ĤçĶºæĿĳ": 4064,
      "åľ°ä¸Ĭ": 4065,
      "ãĥĢãĤ¤ãĤ¨ãĥĥãĥĪ": 4066,
      "æĹ¦": 4067,
      "æ©Łæ§ĭ": 4068,
      "åĨħéĸ£": 4069,
      "çĭĻ": 4070,
      "å¡Ķ": 4071,
      "ä½ĵåĪ¶": 4072,
      "ãĥ«ãĥ¼ãĥ«": 4073,
      "æ£Ħ": 4074,
      "ãĥ¬ãĥ³ãĥĪ": 4075,
      "ãĥĲãĤ¤ãĤ¹": 4076,
      "åı¥": 4077,
      "è¶£åĳ³": 4078,
      "ãĤĪãĤįãģĹãģı": 4079,
      "ãģ©ãģĨãģĹãģ¦": 4080,
      "éĤª": 4081,
      "å¨ģ": 4082,
      "å¯ĦãģĽ": 4083,
      "ãģ®åŃĲ": 4084,
      "ãĤ¢ãĤ¹": 4085,
      "äººæ°ĳ": 4086,
      "åķĨæ¥Ń": 4087,
      "å»¶éķ·": 4088,
      "ãĥĢãĥ³ãĤ¹": 4089,
      "ãĤ¤ãĥ¬": 4090,
      "åĭĿãģ¡": 4091,
      "æĭłçĤ¹": 4092,
      "ãĥĹãĥ¬ãĤ¼ãĥ³ãĥĪ": 4093,
      "é¡ĮæĿĲ": 4094,
      "åįĹéĥ¨": 4095,
      "çŁŃæľŁ": 4096,
      "åıĸãĤĬçµĦ": 4097,
      "ãĤŃãĥ³": 4098,
      "ãĥ©ãĤ°": 4099,
      "æĺĮ": 4100,
      "é«ĺãģķ": 4101,
      "ä½ķåº¦ãĤĤ": 4102,
      "æĺ¨æĹ¥": 4103,
      "ãĥ¼ãĥ©ãĥ¼": 4104,
      "ãĤ¢ãĥ¼ãĥĨãĤ£": 4105,
      "ãĤ¹ãĥŀãĥĽ": 4106,
      "å¾ĵæĿ¥": 4107,
      "//": 4108,
      "éĽĨãģ¾": 4109,
      "å°Ĩè»į": 4110,
      "æľ¬ç·ļ": 4111,
      "ãĤ±ãĥ«": 4112,
      "ãĤ¦ãĤ§ãĤ¤": 4113,
      "ãĥĽãĥ«": 4114,
      "è§¦ãĤĮ": 4115,
      "ãģ¡ãģªãģ¿ãģ«": 4116,
      "æ±ļ": 4117,
      "æ¥ŃçķĮ": 4118,
      "åĲĳãģį": 4119,
      "ãĥĬãĥł": 4120,
      "è¨ŃåĤĻ": 4121,
      "åıİåħ¥": 4122,
      "åĲīçĶ°": 4123,
      "âĹı": 4124,
      "ä»Ĭãģ¾ãģ§": 4125,
      "äºĪæĥ³": 4126,
      "å¾ĹçĤ¹": 4127,
      "ãĥªãĤ¹ãĤ¯": 4128,
      "ä¿¡ãģĺ": 4129,
      "è¨ĺè¿°": 4130,
      "ãĥ¡ãĥ«": 4131,
      "å®ĮäºĨ": 4132,
      "éĢ£çĽŁ": 4133,
      "æĹ¬": 4134,
      "è«ĭæ±Ĥ": 4135,
      "éĢı": 4136,
      "åħĥæ°Ĺ": 4137,
      "åħĲç«¥": 4138,
      "ä»¥å¾Į": 4139,
      "æļ¦": 4140,
      "ãģĳãĤĵ": 4141,
      "å¤ªå¹³": 4142,
      "ãĤĤãĤĵ": 4143,
      "çİĭåº§": 4144,
      "ãģĦãģĹ": 4145,
      "ãĥĳãĥ¯ãĥ¼": 4146,
      "æĮ¯ãĤĬ": 4147,
      "æĶ¿æ¨©": 4148,
      "ãģĭãģĽ": 4149,
      "ãĤ«ãĥĲãĥ¼": 4150,
      "å£²åį´": 4151,
      "å½¢æħĭ": 4152,
      "ç¥ŀçµĮ": 4153,
      "çķĳ": 4154,
      "ãĤ³ãĥ³ãĥĵ": 4155,
      "æµ®æ°Ĺ": 4156,
      "ãĤ½ãĥŃ": 4157,
      "ãĥ¦ãĥĭãĥĥãĥĪ": 4158,
      "æĿ¾æľ¬": 4159,
      "ãĥľãĤ¯": 4160,
      "æĥĳæĺŁ": 4161,
      "ãĥŃãĥ³ãĥīãĥ³": 4162,
      "ä¼ı": 4163,
      "æłĦé¤Ĭ": 4164,
      "éģ©çĶ¨": 4165,
      "ãĤ«ãĥĬãĥĢ": 4166,
      "ãĥĢãĤ¤ãĥ¤": 4167,
      "åİ³ãģĹ": 4168,
      "å§ĵ": 4169,
      "ç«ĭåł´": 4170,
      "ä¸Īå¤«": 4171,
      "ãĤ¢ãĥ³ãĥĪ": 4172,
      "é«ĺæ©ĭ": 4173,
      "æıĲåĩº": 4174,
      "ãĥ¡ãĥ¢": 4175,
      "è²·åıĸ": 4176,
      "ãģĭãĤĵ": 4177,
      "çĲĨè«ĸ": 4178,
      "ãĥ³ãĥļãĥ¼ãĥ³": 4179,
      "å£°åĦª": 4180,
      "æ¬¡éĥİ": 4181,
      "ãĤ³ãĥŁãĥĥãĤ¯": 4182,
      "èĥĮæĻ¯": 4183,
      "çĶŁåĳ½": 4184,
      "ãĥ³ãĥŃãĥ¼ãĥī": 4185,
      "ãĥ¼ãĥĻãĥ«": 4186,
      "ãĥĿãĤ¸": 4187,
      "éĽĨåĽ£": 4188,
      "ãĥĪãĥ©ãĥĸãĥ«": 4189,
      "è¨ªåķı": 4190,
      "è³¢": 4191,
      "æ®ºäºº": 4192,
      "å®ĹæķĻ": 4193,
      "è¬Ľè«ĩ": 4194,
      "åĽŀå¾©": 4195,
      "ç´«": 4196,
      "ãĤŃãĥ£ãĥ³ãĥļãĥ¼ãĥ³": 4197,
      "ãĥĳãĥ¼ãĤ¯": 4198,
      "ãģ§ãģĻ": 4199,
      "å½ĵçĦ¶": 4200,
      "ãģĭãģĭãĤı": 4201,
      "åĨł": 4202,
      "çĶ³è«ĭ": 4203,
      "éĸĵéģķ": 4204,
      "ãĤ¢ãĥ¼ãĥĪ": 4205,
      "çĽ´å¾Į": 4206,
      "ãģŁãģ³": 4207,
      "å¾ģ": 4208,
      "æ°Ĺãģ«": 4209,
      "ä¸Ĭæīĭ": 4210,
      "é§ħåīį": 4211,
      "èĩªè»¢": 4212,
      "æĽ´ãģ«": 4213,
      "Ã©": 4214,
      "ä»¥åĨħ": 4215,
      "æ²Ī": 4216,
      "å®ļç¾©": 4217,
      "ãĥĢãĤ¦ãĥ³ãĥŃãĥ¼ãĥī": 4218,
      "ãĤ³ãĥ³ãĤµ": 4219,
      "ãĤ¯ãĥŃãĤ¹": 4220,
      "ãĥĿãĥ³": 4221,
      "ä»ĭèŃ·": 4222,
      "æİ¢åģµ": 4223,
      "ãĤªãĥ¼ãĤ¹ãĥĪãĥ©ãĥªãĤ¢": 4224,
      "ãĥĴãĥĥãĥĪ": 4225,
      "æĬ«": 4226,
      "ç«¶èµ°": 4227,
      "ãĤıãģļ": 4228,
      "ãĤĦãģ¾": 4229,
      "åĳ¼ãģ³": 4230,
      "éģ¿ãģĳ": 4231,
      "æĪ¦å¾Į": 4232,
      "æ°·": 4233,
      "èĮ¨": 4234,
      "é·": 4235,
      "èĬ¸èĥ½": 4236,
      "ãĤ¹ãĥĪãĥ³": 4237,
      "æįľæŁ»": 4238,
      "çĻºè¨Ģ": 4239,
      "ãĥĸãĥĥãĤ¯": 4240,
      "æ»Ŀ": 4241,
      "ãĥĳãĥ¼ãĥĨãĤ£": 4242,
      "ç¾İå®¹": 4243,
      "ãģĵãģª": 4244,
      "æĿ¥æŃ´": 4245,
      "ãĤ³ãĥŁãĥ¥ãĥĭãĤ±ãĥ¼ãĤ·ãĥ§ãĥ³": 4246,
      "å²³": 4247,
      "æľĢæĸ°": 4248,
      "éĽĨä¸Ń": 4249,
      "ç¸¦": 4250,
      "æĭĿ": 4251,
      "èĦĪ": 4252,
      "ãĥ©ãĤ¤ãĥķ": 4253,
      "ãĤ³ãĥŀ": 4254,
      "å¯Įå±±": 4255,
      "çĬ¯ç½ª": 4256,
      "ãģłãģĦ": 4257,
      "ãĤŃãĥŃ": 4258,
      "æ¬¡ç¬¬": 4259,
      "ãģĨãģĪ": 4260,
      "ä¿Ĺ": 4261,
      "åĬªåĬĽ": 4262,
      "ãĤ¹ãĥĪãĥ¬ãĤ¹": 4263,
      "è¦ĩ": 4264,
      "ãĤ¹ãĥĪãĥª": 4265,
      "è¿½ãģĦ": 4266,
      "æĤ©ãģ¿": 4267,
      "éī±": 4268,
      "åı¤ä»£": 4269,
      "ãĥ¼ãĤ¯ãĤ¹": 4270,
      "èī¯ãģı": 4271,
      "ãĥıãĥ¼ãĥī": 4272,
      "ãģĭæľĪ": 4273,
      "æķĻå¸«": 4274,
      "ãģķãģ¦": 4275,
      "ãĤ¿ãĤ¯": 4276,
      "ãĥ«ãĥ¼ãĥĪ": 4277,
      "å±±æľ¬": 4278,
      "ãĥŀãĥª": 4279,
      "æĬ«éľ²": 4280,
      "ãĤ¹ãĤ¿ãĥ³": 4281,
      "ãĤ·ãĥ§ãĥĬãĥ«": 4282,
      "åŁºåľ°": 4283,
      "ãĥķãĤ©ãĥ¼ãĥŀ": 4284,
      "ãĥ³ãĥĹãĥ«": 4285,
      "ãĤ»ãĥŁ": 4286,
      "ä¸Ģå®ļ": 4287,
      "å¹³åĴĮ": 4288,
      "ãĥĿãĥª": 4289,
      "ãĥİãĥ¼": 4290,
      "åĪĩãĤĮ": 4291,
      "åı¸ä»¤": 4292,
      "ãĤ¸ãĥ«": 4293,
      "ãĥ³ãĥĿ": 4294,
      "æĭĵ": 4295,
      "ãĤ¿ãĤ¦ãĥ³": 4296,
      "åīįå¾Į": 4297,
      "è»įäºĭ": 4298,
      "ãģĤãģĦ": 4299,
      "ãĤ³ãĥł": 4300,
      "äºĪéģ¸": 4301,
      "å¤§éĩı": 4302,
      "ãĥīãĤ¥": 4303,
      "æİĥ": 4304,
      "è¨ĵç·´": 4305,
      "å¦Ĥ": 4306,
      "è¨±åı¯": 4307,
      "æ¶¯": 4308,
      "æ¡ĥ": 4309,
      "å¾Ģ": 4310,
      "ãĤ¢ãĥ¼ãĥĨãĤ£ãĤ¹ãĥĪ": 4311,
      "éĻ¥": 4312,
      "æİĺ": 4313,
      "æľĹ": 4314,
      "åįĪåīį": 4315,
      "ãģ¡ãĤĩãģĨ": 4316,
      "ãģıãĤĵ": 4317,
      "æ¸Ľå°ĳ": 4318,
      "åĲįç¾©": 4319,
      "ç¯ĩ": 4320,
      "æĻ´ãĤīãģĹ": 4321,
      "åĽ°éĽ£": 4322,
      "æĸ°è¨Ń": 4323,
      "ãģĽãĤĵ": 4324,
      "åįĺä½į": 4325,
      "åĪĿãĤģ": 4326,
      "ãģĤãģŁãĤĬ": 4327,
      "ãģĭãģĦ": 4328,
      "æĬµ": 4329,
      "ä¸Ńèı¯": 4330,
      "ãĥķãĤ¡ãĥŁ": 4331,
      "å°ıæŀĹ": 4332,
      "çİĦ": 4333,
      "åĪ©çĽĬ": 4334,
      "ãĤ¹ãĤ¤": 4335,
      "ç¶²": 4336,
      "ãģ¥ãģĳ": 4337,
      "èıĬ": 4338,
      "ãģ£ãģįãĤĬ": 4339,
      "ãģ¾ãģ¤": 4340,
      "ãĤ³ãĥ¼ãĥģ": 4341,
      "å®®å´İ": 4342,
      "è²ŀ": 4343,
      "ãĥ³ãĥĻ": 4344,
      "æį¨ãģ¦": 4345,
      "ç¨ļ": 4346,
      "åĬ¹çİĩ": 4347,
      "å¿ĥçĲĨ": 4348,
      "ç´łæķµ": 4349,
      "å¥ī": 4350,
      "æ²Ļ": 4351,
      "ãĥķãĤ£ãĥª": 4352,
      "éİĮ": 4353,
      "ãĥĲãĥ©ãĥ³ãĤ¹": 4354,
      "ãĥĹãĥ¬ãĥŁ": 4355,
      "åºı": 4356,
      "è¬Ľå¸«": 4357,
      "çĽĽãĤĬ": 4358,
      "ãĥĹãĥ©ãĤ¹": 4359,
      "çı¾åľ°": 4360,
      "è¿ĳå¹´": 4361,
      "éĢļéģİ": 4362,
      "éĿ©åĳ½": 4363,
      "èª²é¡Į": 4364,
      "èĩªè»¢è»Ĭ": 4365,
      "ãĤŃãĥªãĤ¹ãĥĪ": 4366,
      "ãģ£ãģ±ãĤĬ": 4367,
      "éĢ²è¡Į": 4368,
      "èĩĵ": 4369,
      "ãĥĹãĥ¬ãĤ¤ãĥ¤ãĥ¼": 4370,
      "ãĤ«ãĥĥãĥĪ": 4371,
      "ãĤ³ãĥ³ãĤµãĥ¼ãĥĪ": 4372,
      "åĪ¶å¾¡": 4373,
      "ä¸ŃæŃ¢": 4374,
      "éĽ»åĬĽ": 4375,
      "æľĪæĽľ": 4376,
      "åĦªãģĹ": 4377,
      "ç¬ł": 4378,
      "æŁ»å®ļ": 4379,
      "ãĥ¡ãĥ³": 4380,
      "æĦŁæĥħ": 4381,
      "åŀ£": 4382,
      "âĶģ": 4383,
      "æīĭç¶ļãģį": 4384,
      "ãģŁãģ¨": 4385,
      "ãĥŃãĥĥãĥĪ": 4386,
      "æ¸ħæ°´": 4387,
      "è¦ĭãģ¤ãģĭ": 4388,
      "ãĤıãģŁãģĹ": 4389,
      "è»¸": 4390,
      "æĬĳãģĪ": 4391,
      "å¥´": 4392,
      "ãĤ¤ãĥ«ãĤ¹": 4393,
      "å¹¡": 4394,
      "æ»ĳ": 4395,
      "ãĥĥãĥĶãĥ³ãĤ°": 4396,
      "çĶŁæ¶¯": 4397,
      "ãĤ¹ãĥŀãĥ¼ãĥĪ": 4398,
      "ãĤ¸ãĥ§ãĥ¼ãĤ¸": 4399,
      "æİ§": 4400,
      "ãĤ³ãĥ³ãĥĨãĥ³ãĥĦ": 4401,
      "ãĥĸãĥŃãĥĥãĤ¯": 4402,
      "è¾Ľ": 4403,
      "çµ±ä¸Ģ": 4404,
      "ãģĲãĤīãģĦ": 4405,
      "èĤ©": 4406,
      "åĨħéĥ¨": 4407,
      "ãĥļãĥ³": 4408,
      "ãĤ¹ãĤ¯ãĥ¼ãĥ«": 4409,
      "éĻĦ": 4410,
      "ãĤ°ãĥ©ãĥķãĤ£": 4411,
      "çłĶä¿®": 4412,
      "æķĹãĤĮ": 4413,
      "åĪĿåĽŀ": 4414,
      "ç´łæĻ´ãĤīãģĹ": 4415,
      "ãĤ¢ãĤ«ãĥĩ": 4416,
      "ä¿ĿèĤ²": 4417,
      "ãģªãĤĮ": 4418,
      "éģħãĤĮ": 4419,
      "å½°": 4420,
      "å¼Ĭ": 4421,
      "ãĤīãĤĮ": 4422,
      "ãĤ¢ãĥŀ": 4423,
      "å¿į": 4424,
      "çĹĽãģ¿": 4425,
      "ãģĵãģĨãģĹãģŁ": 4426,
      "ç·¨åħ¥": 4427,
      "æħ¢": 4428,
      "å®ı": 4429,
      "éģĬãģ³": 4430,
      "éĩįãģŃ": 4431,
      "ãģĦãĤī": 4432,
      "å°½": 4433,
      "çĨŁ": 4434,
      "æĹħå®¢": 4435,
      "ä»®éĿ¢": 4436,
      "ç£¨": 4437,
      "ä¸ĢåĪĩ": 4438,
      "åĲĮç¤¾": 4439,
      "æ¼Ķãģĺ": 4440,
      "ãĥįãĤ¿": 4441,
      "åĸ«": 4442,
      "æĢ§èĥ½": 4443,
      "è¸Ĭ": 4444,
      "å·¨å¤§": 4445,
      "åµ": 4446,
      "å¤§ä¸Īå¤«": 4447,
      "ãĤ¬ãĥ³ãĥĢ": 4448,
      "æīĭè¡ĵ": 4449,
      "âĢĶ": 4450,
      "çĥ": 4451,
      "ãĥ©ãĥľ": 4452,
      "ãĥĹãĥªãĥ³": 4453,
      "ãĥ³ãĥĶãĤªãĥ³": 4454,
      "å¾ĹæĦı": 4455,
      "å¸³": 4456,
      "ãĤ¨ãĤ¹": 4457,
      "ç§ĺå¯Ĩ": 4458,
      "å¥¨": 4459,
      "æĢĿãģĪ": 4460,
      "ãĤµãĥŃãĥ³": 4461,
      "éĢĥãģĴ": 4462,
      "éļı": 4463,
      "è¿ĳä»£": 4464,
      "æĭĴ": 4465,
      "åĲ¾": 4466,
      "ãĥĨãĤŃ": 4467,
      "æĿ¡ç´Ħ": 4468,
      "è¦ģæ±Ĥ": 4469,
      "å¹»": 4470,
      "ä¼ĬèĹ¤": 4471,
      "æ°ĳæĹı": 4472,
      "æ¸ĭè°·": 4473,
      "å®®åŁİ": 4474,
      "å¢³": 4475,
      "ãģĮãģĳ": 4476,
      "æ®ĭå¿µ": 4477,
      "ãĤŃãĥ£ãĤ¹ãĥĪ": 4478,
      "ãĥŀãĥ³ãĤ·ãĥ§ãĥ³": 4479,
      "èª²ç¨ĭ": 4480,
      "ãĤ¢ãĤ·": 4481,
      "ãĥĥãĤ¿ãĥ¼": 4482,
      "ãĥģãĥ£ãĥ³ãĥĶãĤªãĥ³": 4483,
      "é«ĺãĤģ": 4484,
      "æ¼ģ": 4485,
      "ç¿Įå¹´": 4486,
      "çħĻ": 4487,
      "åĪĬè¡Į": 4488,
      "å·®ãģĹ": 4489,
      "åħ¬åħ±": 4490,
      "éģ©åĪĩ": 4491,
      "ãĤµãĤ¤ãĥī": 4492,
      "å¸Ĥéķ·": 4493,
      "ãĤĦãĤģ": 4494,
      "ãģ£ãģ±ãģĦ": 4495,
      "ä½ĵéĩį": 4496,
      "çĸ²ãĤĮ": 4497,
      "ç¿»è¨³": 4498,
      "ãĥĥãĤ«": 4499,
      "ãĥ³ãĥ¡": 4500,
      "ãĥªãĤ¢ãĥł": 4501,
      "æ´ŀ": 4502,
      "äºĭæĥħ": 4503,
      "ãĤ¨ãĥĶãĤ½ãĥ¼ãĥī": 4504,
      "ãĥľãĥ³": 4505,
      "çī©çĲĨ": 4506,
      "æĶ¹éĿ©": 4507,
      "ãĥĸãĥ³": 4508,
      "çī©è³ª": 4509,
      "åĲĪæł¼": 4510,
      "æĿ±æĺł": 4511,
      "ãĥ¼ãĥªãĥ³ãĤ°": 4512,
      "æ¨©åĪ©": 4513,
      "éĿ¢ç©į": 4514,
      "èº«éķ·": 4515,
      "ãĥŀãĤ¹ãĤ¿ãĥ¼": 4516,
      "è½Ħ": 4517,
      "ãĤ¤ãĥ³ãĤ¿ãĥĵãĥ¥ãĥ¼": 4518,
      "ä½³": 4519,
      "åıĪãģ¯": 4520,
      "æĦŁè¦ļ": 4521,
      "ãĥķãĤ¡ãĥ¼": 4522,
      "èįĺ": 4523,
      "åı²ä¸Ĭ": 4524,
      "è²´æĹı": 4525,
      "å°ĭ": 4526,
      "æ¹¿": 4527,
      "èģ·åĵ¡": 4528,
      "åĦªãĤĮ": 4529,
      "ç²§": 4530,
      "ãĤ«ãĥķãĤ§": 4531,
      "ç¶±": 4532,
      "æĸİ": 4533,
      "é¦ĸçĽ¸": 4534,
      "ãģĹãģ°ãĤīãģı": 4535,
      "åıĹãģĳåħ¥ãĤĮ": 4536,
      "é£Ľãģ³": 4537,
      "ãĤ¹ãĥ³": 4538,
      "ãĥĥãĤº": 4539,
      "ãĥĩãĤ£ãĥ¼": 4540,
      "ãĤ¦ãĤ¤ãĥ«ãĤ¹": 4541,
      "æĤŁ": 4542,
      "æµĦ": 4543,
      "ãĤªãĥļ": 4544,
      "éł»": 4545,
      "ãĥ¤ãĥŀ": 4546,
      "éĸĵéģķãģĦ": 4547,
      "æ³°": 4548,
      "é¨Ĵ": 4549,
      "ãĤ¢ãĥīãĥ¬ãĤ¹": 4550,
      "çµĲæ§ĭ": 4551,
      "æľ¬æĹ¥": 4552,
      "åģľè»Ĭ": 4553,
      "åĽºå®ļ": 4554,
      "åĶĲ": 4555,
      "ãĥŀãĥ©": 4556,
      "ãĥªãĥ¼ãĥĢãĥ¼": 4557,
      "ãĥķãĤ¡ãĥĥãĤ·ãĥ§ãĥ³": 4558,
      "åĭĿæīĭ": 4559,
      "çıį": 4560,
      "åİŁåŃĲ": 4561,
      "å®Łæ¥Ń": 4562,
      "éłĲ": 4563,
      "ãĤ¨ãĤ¯": 4564,
      "å¤§åĪĨ": 4565,
      "è¬Ģ": 4566,
      "ãĥĲãĥ¼ãĥĪ": 4567,
      "èħ°": 4568,
      "å¤ªå¹³æ´ĭ": 4569,
      "å±¥": 4570,
      "åĩ¦åĪĨ": 4571,
      "ãĥ©ãĥªãĥ¼": 4572,
      "çįĦ": 4573,
      "ç¡¬": 4574,
      "ãĥ¡ãĥĢãĥ«": 4575,
      "é§Ĵ": 4576,
      "åĮĸç²§": 4577,
      "ãģĦãģļãĤĮãĤĤ": 4578,
      "ãĤ¯ãĥªãĤ¹ãĥŀãĤ¹": 4579,
      "è¶ĬãģĪ": 4580,
      "æĬķãģĴ": 4581,
      "éĢ®": 4582,
      "ãĤ¹ãĤ¹ãĥ¡": 4583,
      "åŃ£ç¯Ģ": 4584,
      "éĢ®æįķ": 4585,
      "ãĥĩãĤ£ãĥ¬": 4586,
      "æĬ¼ãģĹ": 4587,
      "ãĥŁãĥį": 4588,
      "æ¶Īéĺ²": 4589,
      "çİĭåŃĲ": 4590,
      "åįµ": 4591,
      "ä¸ĭãģĴ": 4592,
      "æĪ¦çķ¥": 4593,
      "ç²ī": 4594,
      "èĭ¦ãģĹ": 4595,
      "ãģĦãģĭãģĮ": 4596,
      "ãģ¾ãĤĭ": 4597,
      "åģ½": 4598,
      "éļĶ": 4599,
      "æĬ±ãģĪ": 4600,
      "ãĤ·ãĥĥãĤ¯": 4601,
      "ç¹ĭãģĮ": 4602,
      "ãģĦãĤīãģ£ãģĹãĤĥ": 4603,
      "æĹ¨": 4604,
      "ãĤ¤ãĥ³ãĥķ": 4605,
      "ä¸įåĢ«": 4606,
      "çİĩãģĦ": 4607,
      "ãģ¾ãģ£": 4608,
      "ãĤ½ãĥ¼": 4609,
      "è¾¼ãĤģ": 4610,
      "æĶ¹éĢł": 4611,
      "ãĤ¹ãĥª": 4612,
      "ãĤ½ãĥĬ": 4613,
      "ç¥Ĳ": 4614,
      "æĸ¹éĩĿ": 4615,
      "ãĥĸãĥ«ãĥ¼": 4616,
      "ãĤ°ãĥªãĥ¼ãĥ³": 4617,
      "åĲĦç¨®": 4618,
      "æĶ¯ãģĪ": 4619,
      "è©±ãģĹ": 4620,
      "éĿĴæ£®": 4621,
      "å®£è¨Ģ": 4622,
      "ãĤ¬ãĤ¤ãĥī": 4623,
      "èıĵ": 4624,
      "åĴĮæŃĮ": 4625,
      "ä¸īéĥİ": 4626,
      "å·Ŀå´İ": 4627,
      "è¨ºæĸŃ": 4628,
      "è¬Ľåº§": 4629,
      "éģºçĶ£": 4630,
      "è±Ĭå¯Į": 4631,
      "æīĭæ®µ": 4632,
      "å¿ľåĭŁ": 4633,
      "éģĤ": 4634,
      "ãģĤãģĪ": 4635,
      "ç§»è¡Į": 4636,
      "åĮĹéĥ¨": 4637,
      "äºĭéłħ": 4638,
      "æ·±å¤ľ": 4639,
      "è¨¼æĭł": 4640,
      "èĮ¨åŁİ": 4641,
      "æ£ĭ": 4642,
      "èĳĹæĽ¸": 4643,
      "æĹŃ": 4644,
      "æĥ³åĥı": 4645,
      "ç³¸": 4646,
      "éĢ£æĲº": 4647,
      "ãĥĪãĥ¼ãĤ¯": 4648,
      "å·»ãģį": 4649,
      "ãĥĦãĥ¼ãĥ«": 4650,
      "ç´łæĿĲ": 4651,
      "è§£æķ£": 4652,
      "ãĥ³ãĥĪãĥªãĥ¼": 4653,
      "çģ½å®³": 4654,
      "æľ¬æł¼": 4655,
      "ãĤ¤ãĥ³ãĤ¹ãĥĪ": 4656,
      "éĺªç¥ŀ": 4657,
      "æ³£": 4658,
      "ãĤ·ãĥĬ": 4659,
      "äº¤æ¸ī": 4660,
      "å¦ĸ": 4661,
      "ãĤ³ãĤ¹": 4662,
      "åħįè¨±": 4663,
      "ä¿®æŃ£": 4664,
      "ãĤ±ãĥ¼": 4665,
      "ãģ¥ãģıãĤĬ": 4666,
      "ä¸īéĩį": 4667,
      "åĪĨéĽ¢": 4668,
      "åīĽ": 4669,
      "çµĦãģ¿åĲĪãĤıãģĽ": 4670,
      "ãĥīãĤ¢": 4671,
      "éĢģä¿¡": 4672,
      "åĺī": 4673,
      "çŁ¥äºĭ": 4674,
      "ãģªãĤĵãģ¨": 4675,
      "ãĥ¬ãĥ¼ãĥĪ": 4676,
      "åĲĮå£«": 4677,
      "ãĥŀãĤ¬": 4678,
      "åĮºåŁŁ": 4679,
      "çı¾å½¹": 4680,
      "ãĤĪãģĹ": 4681,
      "ãĥŀãĥŀ": 4682,
      "ãĥĩãĥ¼ãĥĪ": 4683,
      "ãĤ½ãĥķãĥĪãĤ¦ãĤ§ãĤ¢": 4684,
      "ãĤ¹ãĥ©": 4685,
      "å¤§ä½¿": 4686,
      "éļ£æİ¥": 4687,
      "ç´Ģåħĥ": 4688,
      "ãģ«ãĤĤ": 4689,
      "é§Ħ": 4690,
      "ãĤ¤ãĤ¢": 4691,
      "ãĤ¢ãĤ«ãĥĩãĥŁãĥ¼": 4692,
      "çĵ": 4693,
      "åĬłèĹ¤": 4694,
      "åīµè¨Ń": 4695,
      "ä»°": 4696,
      "çŃĳ": 4697,
      "ä»ķæĸ¹": 4698,
      "èı±": 4699,
      "æļĳ": 4700,
      "æłĹ": 4701,
      "æĺİãĤĭ": 4702,
      "éŃĤ": 4703,
      "åįĵ": 4704,
      "åıĤæĪ¦": 4705,
      "ãģĶãĤį": 4706,
      "æĩ¸": 4707,
      "ãģįãģ¡": 4708,
      "å¿Ļ": 4709,
      "ãģ¾ãģĪ": 4710,
      "ãĥŀãĥĥãĥģ": 4711,
      "å±±å½¢": 4712,
      "èĦĩ": 4713,
      "é«ĺé½¢": 4714,
      "ãĤªãĥ©ãĥ³ãĥĢ": 4715,
      "é¦ĸéĥ½": 4716,
      "ãģĹãĤĩãģĨ": 4717,
      "åĥįãģį": 4718,
      "ãĥĴãĥŃ": 4719,
      "ãĤ¤ãĥ³ãĤ°ãĥ©ãĥ³ãĥī": 4720,
      "ãĤŃãĥ£ãĥªãĤ¢": 4721,
      "è·µ": 4722,
      "ç¬¬äºĮ": 4723,
      "ç©ºæ°Ĺ": 4724,
      "éĥ¨éķ·": 4725,
      "è£Ĥ": 4726,
      "åıĹé¨ĵ": 4727,
      "ä»ĸäºº": 4728,
      "æ¥½ãģĹãĤģ": 4729,
      "è¡Ģæ¶²": 4730,
      "æ¸¡è¾º": 4731,
      "åĨįéĸĭ": 4732,
      "æĻ®åıĬ": 4733,
      "æµª": 4734,
      "å¾Ĳ": 4735,
      "å¾³å³¶": 4736,
      "å°»": 4737,
      "ãģ£ãģ½": 4738,
      "ä¸¡è¦ª": 4739,
      "åħ±æľī": 4740,
      "æ¯Ķè¼ĥçļĦ": 4741,
      "èī¦éļĬ": 4742,
      "æ°ĹåĪĨ": 4743,
      "èĬ³": 4744,
      "ãģłãģĮ": 4745,
      "ãĥ³ãĥĹãĥª": 4746,
      "ãĥ¯ãĤ¤ãĥĪ": 4747,
      "ãĤ¹ãĤ³ãĥĥãĥĪ": 4748,
      "ãĤ¯ãĥ¼ãĥ«": 4749,
      "ãĤ·ãĥ£ãĥ¼": 4750,
      "éĢļç§°": 4751,
      "ãĥĩãĤ£ãĥ³ãĤ°": 4752,
      "æº¶": 4753,
      "ç¥¥": 4754,
      "ãĥªãĥĥãĤ¯": 4755,
      "ãģ®ãģ§": 4756,
      "ãģĻãĤī": 4757,
      "æĢĿæĥ³": 4758,
      "åĲ¦å®ļ": 4759,
      "èªķçĶŁæĹ¥": 4760,
      "ãĤ±ãĥ³": 4761,
      "ãĤ¼ãĥ«": 4762,
      "æıĥ": 4763,
      "è²¯": 4764,
      "ãģ¤ãĤĤãĤĬ": 4765,
      "æĪĴ": 4766,
      "åħ±æ¼Ķ": 4767,
      "ãĤ¤ãĥ³ãĥĩãĤ£": 4768,
      "ä¿Ŀè¨¼": 4769,
      "æĸ°è¦ı": 4770,
      "æŃ£ç¢º": 4771,
      "æĸ°äºº": 4772,
      "æ¿ĢãģĹ": 4773,
      "åĲĪè¨Ī": 4774,
      "ãĥ¡ãĤ¸ãĥ£ãĥ¼": 4775,
      "ç¢ºå®Ł": 4776,
      "ãģĵãĤĵ": 4777,
      "å®Łè·µ": 4778,
      "ãĤ«ãĤ¿": 4779,
      "äºĪéĺ²": 4780,
      "æĸī": 4781,
      "ãĤĮãģĦ": 4782,
      "çĽ¸ç¶ļ": 4783,
      "åĽŀè»¢": 4784,
      "ãĥ¬ãĤ¹ãĥĪãĥ©ãĥ³": 4785,
      "è»¢èģ·": 4786,
      "é£²ãģ¿": 4787,
      "æģĴ": 4788,
      "èªĩ": 4789,
      "èĩŃ": 4790,
      "æĶ¯åºĹ": 4791,
      "å¼ķãģ£": 4792,
      "è¼Ķ": 4793,
      "ãģĤãĤĮ": 4794,
      "åĩºåĬĽ": 4795,
      "éĮ²éŁ³": 4796,
      "èīĩ": 4797,
      "ãĥŃãĥľãĥĥãĥĪ": 4798,
      "ãĤ¢ãĤ¯ãĤ·ãĥ§ãĥ³": 4799,
      "ãĤµãĤ¦ãĥ³ãĥī": 4800,
      "æĻ¶": 4801,
      "ç¶Ļæī¿": 4802,
      "ãģĿãĤĮãģ§ãĤĤ": 4803,
      "ãĤĦãģ£ãģ±ãĤĬ": 4804,
      "éľĩçģ½": 4805,
      "åıĸãĤĮ": 4806,
      "èŃľ": 4807,
      "æĿİ": 4808,
      "æĨ²æ³ķ": 4809,
      "ç¥Ī": 4810,
      "æļ®ãĤī": 4811,
      "å¤§å¥½ãģį": 4812,
      "çµĤãģĪ": 4813,
      "èĩªè¡Ľ": 4814,
      "æ½®": 4815,
      "éĥ½åĲĪ": 4816,
      "æŃ´ä»£": 4817,
      "ãĥķãĤ£ãĥ¼ãĥ«": 4818,
      "å¾Ħ": 4819,
      "å¤§æīĭ": 4820,
      "å¥³ãģ®åŃĲ": 4821,
      "ç¬ĳãģĦ": 4822,
      "ãĤ¨ãĥ³ãĥĩãĤ£ãĥ³ãĤ°": 4823,
      "ä¸ĸè©±": 4824,
      "ãģĦãĤıãĤĨãĤĭ": 4825,
      "ãģĦãģ£ãģ±ãģĦ": 4826,
      "åĿĬ": 4827,
      "åĵ²åŃ¦": 4828,
      "è²¡åĽ£": 4829,
      "è¬İ": 4830,
      "æļĸ": 4831,
      "å¹¼ç¨ļ": 4832,
      "ä¼Ĭåĭ¢": 4833,
      "è«ĸæĸĩ": 4834,
      "æ¬§å·ŀ": 4835,
      "åĭķä½ľ": 4836,
      "ãĤ¿ãĥ¬ãĥ³ãĥĪ": 4837,
      "ãĤ·ãĥ¼ãĥĪ": 4838,
      "è¨ĺèĢħ": 4839,
      "ãĥĲãĥ³ãĤ¯": 4840,
      "ãĤ´ãĥ«ãĥķ": 4841,
      "ãĥªãĤºãĥł": 4842,
      "ãĤ¯ãĥªãĤ¢": 4843,
      "ãĥ³ãĤ¹ãĤ¿ãĥ¼": 4844,
      "åĪ¶å®ļ": 4845,
      "ãĥĿãĤ¸ãĤ·ãĥ§ãĥ³": 4846,
      "æĬķæīĭ": 4847,
      "åīµæ¥Ń": 4848,
      "æĸĩæĽ¸": 4849,
      "éłĺåŁŁ": 4850,
      "è»Įéģĵ": 4851,
      "ãģĹãģĭãĤĤ": 4852,
      "ç¦ıäºķ": 4853,
      "åį°åĪ·": 4854,
      "åħĪæĹ¥": 4855,
      "å¹³æĹ¥": 4856,
      "æ§ĭç¯ī": 4857,
      "ãĤ¨ãĥĨãĤ£": 4858,
      "ãĥ¼ãĥ¢": 4859,
      "ãĥİãĥ«": 4860,
      "éĢ²åŃ¦": 4861,
      "çĶ·å¥³": 4862,
      "ãĤ«ãĥŃ": 4863,
      "çĸĳåķı": 4864,
      "ãĤĦãģ£ãģ¦": 4865,
      "åł´éĿ¢": 4866,
      "å¤«å©¦": 4867,
      "åħħå®Ł": 4868,
      "å³°": 4869,
      "éĬħ": 4870,
      "ä¸Ĭæĺĩ": 4871,
      "éķ·æľŁ": 4872,
      "éĸ²": 4873,
      "å§īå¦¹": 4874,
      "ç¶º": 4875,
      "ãĤ³ãĥŁãĥ¥ãĥĭãĥĨãĤ£": 4876,
      "çī©ä»¶": 4877,
      "æłĥ": 4878,
      "ãĤ³ãĤ¹ãĥĪ": 4879,
      "ç®ĩ": 4880,
      "çķªçĽ®": 4881,
      "æĮ¿": 4882,
      "åĳ½ä»¤": 4883,
      "åīĬéĻ¤": 4884,
      "ãĥ¦ãĥĢ": 4885,
      "ãĥĵãĥĥãĥĪ": 4886,
      "æ£Ĵ": 4887,
      "ãĤ³ãĥ¼ãĥĩãĤ£": 4888,
      "ãĥ¥ãĥ¼ãĤ¹": 4889,
      "æĶ¯æīķãģĦ": 4890,
      "è¦ıåĪ¶": 4891,
      "å¤©æ°Ĺ": 4892,
      "ãĥĽãĥ¯ãĤ¤ãĥĪ": 4893,
      "ãģ¿åĩº": 4894,
      "å¼Ĭç¤¾": 4895,
      "æĻ©": 4896,
      "æ£Ł": 4897,
      "åĪĨåī²": 4898,
      "ãģ¤ãģį": 4899,
      "å¤ļæ§ĺ": 4900,
      "è¦³æ¸¬": 4901,
      "èº«ãģ«": 4902,
      "åºĦ": 4903,
      "ãĥīãĥ©ãĤ´ãĥ³": 4904,
      "å«ģ": 4905,
      "ãģ¡ãĤĥãĤĵãģ¨": 4906,
      "ãģ¾ãģ¡": 4907,
      "ãĤ³ãĥ«": 4908,
      "ãĥŃãĤ¤": 4909,
      "ãĤ¹ãĤŃãĥ«": 4910,
      "ãĤµãĥĸ": 4911,
      "à¸": 4912,
      "éĽ¢å©ļ": 4913,
      "èľ": 4914,
      "ãĤīãģª": 4915,
      "åķĵ": 4916,
      "ãĥĪãĥ¬ãĥ¼ãĥĭãĥ³ãĤ°": 4917,
      "ä½İä¸ĭ": 4918,
      "å½ĵéģ¸": 4919,
      "éģŃ": 4920,
      "ãģĦãģıãģ¤ãģĭãģ®": 4921,
      "ãĤ¦ãĤ£ãĥªãĤ¢ãĥł": 4922,
      "æł¡èĪİ": 4923,
      "ä¿¡çĶ¨": 4924,
      "å¤§åĴĮ": 4925,
      "ãĤ¬ãĥ³ãĥĢãĥł": 4926,
      "åı¯æĦĽ": 4927,
      "ç¾©åĭĻ": 4928,
      "å§¿åĭ¢": 4929,
      "ãĥĲãĥĪãĥ«": 4930,
      "äº¡ãģıãģª": 4931,
      "å¨ł": 4932,
      "åĦªåħĪ": 4933,
      "å¦Ĭå¨ł": 4934,
      "éĿĴå¹´": 4935,
      "åİŁåīĩ": 4936,
      "ãĤ¹ãĤ¿ãĥ³ãĥĪ": 4937,
      "ä¹ħä¿Ŀ": 4938,
      "âĸł": 4939,
      "ãģįãģ£ãģ¨": 4940,
      "ãĥĹãĥŃãĥĢ": 4941,
      "åıĹä»ĺ": 4942,
      "ãĥķãĤ£ãĥ¼ãĥ«ãĥī": 4943,
      "æĢĿèŃ°": 4944,
      "ãĤĨãģĨ": 4945,
      "ç¾¤é¦¬": 4946,
      "æıļ": 4947,
      "å¹¹ç·ļ": 4948,
      "éģĩ": 4949,
      "ä¸ģå¯§": 4950,
      "ãģĬãģĬ": 4951,
      "ãĢħãģ«": 4952,
      "åŁ¹": 4953,
      "æħİ": 4954,
      "æĪ¦å£«": 4955,
      "åĽŀçŃĶ": 4956,
      "ãĥĢãĥĸãĥ«": 4957,
      "ãĥŁãĤµ": 4958,
      "ãĥļãĥĥãĥĪ": 4959,
      "åĲ¸åıİ": 4960,
      "æ®ĭãĤĬ": 4961,
      "ãĤ«ãĤ¦ãĥ³": 4962,
      "ãģ©ãģ®ãĤĪãģĨãģ«": 4963,
      "ãģĹãĤĵ": 4964,
      "ãĥ¬ãĥ¼ãĤ¿ãĥ¼": 4965,
      "æĿĲæĸĻ": 4966,
      "æ¯İéĢ±": 4967,
      "è§£æ¶Ī": 4968,
      "ãĥªãĤ¢ãĥ³": 4969,
      "ä¼ĿãĤı": 4970,
      "ãĥīãĥŃ": 4971,
      "å¢ĹãĤĦ": 4972,
      "ãĤ¹ãĥĶãĥ¼ãĥī": 4973,
      "å¤§è¦ıæ¨¡": 4974,
      "æĺİç¢º": 4975,
      "æ´²": 4976,
      "ãĥĪãĥªãĥĥãĤ¯": 4977,
      "ãĥĵãĥ³": 4978,
      "æľĢä½İ": 4979,
      "ãģŁãģĭ": 4980,
      "å¯ĦãĤĬ": 4981,
      "æĬĬ": 4982,
      "éĺ²æŃ¢": 4983,
      "ãģ²ãģ¨ãĤĬ": 4984,
      "éĬŃ": 4985,
      "ãĤģãģĲ": 4986,
      "ãģĵãģĨãģĦãģĨ": 4987,
      "æ®ºå®³": 4988,
      "åįĶèŃ°": 4989,
      "ãĤ»ãĥ³ãĤ¹": 4990,
      "ãĥ©ãĤ°ãĥĵãĥ¼": 4991,
      "åĲĮä¸Ģ": 4992,
      "éĩİèıľ": 4993,
      "ãĥĹãĥŃãĥĩãĥ¥ãĥ¼ãĤ¹": 4994,
      "çŁ¥ãĤĬ": 4995,
      "ä¸įæĢĿèŃ°": 4996,
      "åį±æ©Ł": 4997,
      "çĭ©": 4998,
      "Ĵãĥ¼": 4999,
      "æ¨¡æ§ĺ": 5000,
      "ãĤ·ãĥĥãĥĹ": 5001,
      "ãģĤãģį": 5002,
      "ç£ģ": 5003,
      "èĤ²æĪĲ": 5004,
      "ãĥıãĥª": 5005,
      "ãĥĥãĤ³": 5006,
      "ãĥĢãĤ¦ãĥ³": 5007,
      "æŁ±": 5008,
      "äºķä¸Ĭ": 5009,
      "åĬ±": 5010,
      "çĭĤ": 5011,
      "ç¥ŃãĤĬ": 5012,
      "éĢ±åĪĬ": 5013,
      "ç·¯": 5014,
      "ãģ²ãĤį": 5015,
      "ãģ½": 5016,
      "èŃ°è«ĸ": 5017,
      "ç´ĦæĿŁ": 5018,
      "ãģªãĤĵãģĭ": 5019,
      "åħ¨éĥ¨": 5020,
      "ãĥķãĤ£ãĥ³": 5021,
      "ãģłãĤĵ": 5022,
      "ãĥ©ãĥ³ãĤ¯": 5023,
      "ãĥĪãĤ¤ãĥ¬": 5024,
      "ãĤªãĥ¼ãĥĹãĥĭãĥ³ãĤ°": 5025,
      "ãĤ³ãĥ¡": 5026,
      "é¦Ļæ¸¯": 5027,
      "èĭ¦æīĭ": 5028,
      "ãĥĻãĥ«ãĥĪ": 5029,
      "åĲĮçĽŁ": 5030,
      "èģ·æ¥Ń": 5031,
      "èĩªä¿¡": 5032,
      "ãĤ¸ãĥ¥ãĥĭãĤ¢": 5033,
      "ãĤ³ãĥ¼ãĥĴãĥ¼": 5034,
      "ãĤ¼ãĥŃ": 5035,
      "ãĤ»ãĤ¤": 5036,
      "ãĥŀãĤ¸": 5037,
      "ãĤ¯ãĤµ": 5038,
      "ãĥĺãĥĥãĥī": 5039,
      "æ®ĸ": 5040,
      "åºĥãģĴ": 5041,
      "ãĥ¦ãĥĢãĥ¤": 5042,
      "ãĥĳãĥ¼ãĥĪãĥĬãĥ¼": 5043,
      "è²¨çī©": 5044,
      "æĭ³": 5045,
      "åĭ¢åĬĽ": 5046,
      "ãĤ«ãĥĨ": 5047,
      "ä»£çĲĨ": 5048,
      "åģ¶": 5049,
      "ãĤ¹ãĥĿãĥĥãĥĪ": 5050,
      "ãĤ¤ãĤªãĥ³": 5051,
      "æĹ¥è¨ĺ": 5052,
      "å¸°åĽ½": 5053,
      "ãĥıãĥ³ãĥī": 5054,
      "æĺĩæł¼": 5055,
      "è§£æĶ¾": 5056,
      "ãĥĴãĥĪ": 5057,
      "ãģĭãĤĬãĤĦãģĻ": 5058,
      "ãĥ¼ãĥĵãĥ¼": 5059,
      "éļ»": 5060,
      "æ¶ĪãģĪ": 5061,
      "ä¿®çĲĨ": 5062,
      "å¤§éĻ¸": 5063,
      "å°±èģ·": 5064,
      "ãĤ¦ãĥ«ãĥĪ": 5065,
      "å½¹æīĢ": 5066,
      "çĶ³ãģĹä¸ĬãģĴ": 5067,
      "ãĥ©ãĥĸ": 5068,
      "æħ£ãĤĮ": 5069,
      "éķ·ãģķ": 5070,
      "ãģĮãģ¡": 5071,
      "ãĥĭãĥ¼ãĤº": 5072,
      "ä¾Ľçµ¦": 5073,
      "åħĭ": 5074,
      "æºĢãģŁ": 5075,
      "ãģįãģ¡ãĤĵãģ¨": 5076,
      "å°ĤæĶ»": 5077,
      "è¡ĽéĸĢ": 5078,
      "ãĤŃãĥ£ãĥ³": 5079,
      "ãģŁãĤĵ": 5080,
      "çĸ¾": 5081,
      "çı¾çĬ¶": 5082,
      "çķ¥æŃ´": 5083,
      "ãĤ»ãĥĥãĤ¯ãĤ¹": 5084,
      "å¯ºéĻ¢": 5085,
      "ãĥĸãĥ©ãĤ¸ãĥ«": 5086,
      "æķ°åŃ¦": 5087,
      "ãĤ°ãĥ©ãĥ³ãĥĹãĥª": 5088,
      "æ°ĳéĸĵ": 5089,
      "éħµ": 5090,
      "ãģĦãĤĦ": 5091,
      "ç¶ºéºĹ": 5092,
      "éĩ£": 5093,
      "åīįåĽŀ": 5094,
      "ãĥģãĥ£ãĥ¼": 5095,
      "åıĸãĤĬåħ¥ãĤĮ": 5096,
      "å¤©æĸĩ": 5097,
      "æķ°åŃĹ": 5098,
      "äºĭæħĭ": 5099,
      "æģĲãĤĮ": 5100,
      "ãģ»ãĤĵ": 5101,
      "æľ¬åĲį": 5102,
      "ç¢ºå®ļ": 5103,
      "å¹¾": 5104,
      "æ²³å·Ŀ": 5105,
      "æµģè¡Į": 5106,
      "å»ºéĢł": 5107,
      "ç¬ĳé¡Ķ": 5108,
      "ãģ¨ãģĬãĤĬ": 5109,
      "çĩ¥": 5110,
      "åħĥãĢħ": 5111,
      "æĿ±æ´ĭ": 5112,
      "æģĭäºº": 5113,
      "ãĤµãĥł": 5114,
      "èĤ¥": 5115,
      "ãĤ¦ãĥĥãĥī": 5116,
      "ãĤıãģĸ": 5117,
      "é¡ķ": 5118,
      "åıİéĽĨ": 5119,
      "åįĺçĭ¬": 5120,
      "ãĥ¡ãĤ¬": 5121,
      "ãĥ³ãĥĨãĤ£ãĤ¢": 5122,
      "äºĪç®Ĺ": 5123,
      "ãĥľãĥ¼ãĥī": 5124,
      "æĮĩç¤º": 5125,
      "å¤§è³ŀ": 5126,
      "åħ±çĶ£": 5127,
      "åıİãĤģ": 5128,
      "è±Ĭãģĭ": 5129,
      "ãĥķãĥ©ãĤ¤": 5130,
      "æľĢéģ©": 5131,
      "ãĥ¬ãĥĥãĤ¹ãĥ³": 5132,
      "æ©Łåĭķ": 5133,
      "ãĤ³ãĥĶãĥ¼": 5134,
      "åħ¬ç«ĭ": 5135,
      "ãģĿãĤį": 5136,
      "è²§": 5137,
      "ãĥĥãĤ¿": 5138,
      "ãĤªãĥ¼ãĥĩãĤ£": 5139,
      "æĺ¨å¹´": 5140,
      "å¶ĭ": 5141,
      "åľ¨ç±į": 5142,
      "æ±Ĥäºº": 5143,
      "çŃĴ": 5144,
      "Ïī": 5145,
      "éĹĩ": 5146,
      "ãĥĲãĤ¹ãĤ±ãĥĥãĥĪ": 5147,
      "ãĥģãĥ£ãĥ¼ãĥĪ": 5148,
      "ãģĵãģł": 5149,
      "è³ĩçĶ£": 5150,
      "ãĤ¸ãĥ£ãĥ³ãĥĹ": 5151,
      "èĵ®": 5152,
      "ãĤ¸ãĥ¥ãĥ¼ãĥ«": 5153,
      "çļĩå¸Ŀ": 5154,
      "éģºä¼Ŀ": 5155,
      "ãĥ¼ãĥ³ãĤº": 5156,
      "å¼¦": 5157,
      "ãģ´": 5158,
      "ãĥŃãĥ¼ãĤº": 5159,
      "ãģ¾ãģĹ": 5160,
      "éİĮåĢī": 5161,
      "å®Łç¸¾": 5162,
      "æ³³": 5163,
      "é¼»": 5164,
      "éķ·çĶ·": 5165,
      "åĪ¥ãĤĮ": 5166,
      "ãĤ»ãĥ¬": 5167,
      "ãĥ¼ãĥ¡ãĥ³": 5168,
      "ãģ¾ãģĤ": 5169,
      "éķ·å®ĺ": 5170,
      "åħµåĻ¨": 5171,
      "å²©æīĭ": 5172,
      "ä¹¾çĩ¥": 5173,
      "ãĥįãĤ¤": 5174,
      "æłĥæľ¨": 5175,
      "å¤§å¹ħ": 5176,
      "å¾ĮæľŁ": 5177,
      "æ¶¼": 5178,
      "å·¦åı³": 5179,
      "ãĤªãĥ¼ãĥĪ": 5180,
      "èıĵåŃĲ": 5181,
      "éĩĳå±ŀ": 5182,
      "çĻºæı®": 5183,
      "åľ°åĽ³": 5184,
      "æ»ĭ": 5185,
      "åħ¥ç¤¾": 5186,
      "éĢģãĤĬ": 5187,
      "ãĤĨãģ£ãģıãĤĬ": 5188,
      "åĢ¤æ®µ": 5189,
      "ãĤªãĥĹ": 5190,
      "ç¿Ĵæħ£": 5191,
      "çĽ´åīį": 5192,
      "ãĤ³ãĥ¬ãĤ¯ãĤ·ãĥ§ãĥ³": 5193,
      "åıĸæĿĲ": 5194,
      "ãĥĢãĥ¡": 5195,
      "å°ıåŀĭ": 5196,
      "ä¹Ĺè»Ĭ": 5197,
      "çŁ¥ãĤĮ": 5198,
      "ãĥŀãĤ·ãĥ³": 5199,
      "å¾Įãģ«": 5200,
      "æīĭä¼Ŀ": 5201,
      "èĹ¤åİŁ": 5202,
      "ãĥĹãĥ¼ãĥ«": 5203,
      "çı¾è±¡": 5204,
      "ãĤ¦ãĥ«ãĥĪãĥ©": 5205,
      "å½ĵè©²": 5206,
      "èĴ¸": 5207,
      "åįłãĤģ": 5208,
      "èıħ": 5209,
      "ãĥ¢ãĥ³ãĥī": 5210,
      "æ¶Ļ": 5211,
      "ãĥ¼ãĥĨãĤ£ãĥ³ãĤ°": 5212,
      "èĲ½ãģ¡çĿĢ": 5213,
      "æĬĬæı¡": 5214,
      "æŃĮè©ŀ": 5215,
      "èģ·åł´": 5216,
      "ãĥĬãĥ³": 5217,
      "æĸĩç«ł": 5218,
      "ãĥĲãĥ©ãĤ¨ãĥĨãĤ£": 5219,
      "ãĥĻãĤ¤": 5220,
      "ä¸Ĭä½į": 5221,
      "è®": 5222,
      "è¥¿éĥ¨": 5223,
      "ãĥķãĤ©ãĥ¼ãĥī": 5224,
      "(^": 5225,
      "ãĥ¼ãĥĮ": 5226,
      "å¼·åĪ¶": 5227,
      "çĶ»å®¶": 5228,
      "éģºè·¡": 5229,
      "ç·©": 5230,
      "ãĥ«ãĥ¼ãĥł": 5231,
      "ãĥľãĥ¼ãĤ«ãĥ«": 5232,
      "æ¶Īæ»ħ": 5233,
      "æģ©": 5234,
      "(*": 5235,
      "åīµç«ĭ": 5236,
      "åįĥä»£": 5237,
      "ãĥ³ãĥı": 5238,
      "çµ±è¨Ī": 5239,
      "`)": 5240,
      "è¥¿æĹ¥æľ¬": 5241,
      "åĲĮæĹ¥": 5242,
      "è¦Ĩ": 5243,
      "ãĥīãĥ³": 5244,
      "æŃ¯ç§ĳ": 5245,
      "åĩºå¼µ": 5246,
      "åħ¥æīĭ": 5247,
      "ç«£": 5248,
      "çĲĨæĥ³": 5249,
      "ãĤ¢ãĥŁ": 5250,
      "éĢļç®Ĺ": 5251,
      "è©²å½ĵ": 5252,
      "çªģçĦ¶": 5253,
      "æ©Łä½ĵ": 5254,
      "ãĥĭãĥĥ": 5255,
      "åĢŁéĩĳ": 5256,
      "ä¸īèı±": 5257,
      "åĪºæ¿Ģ": 5258,
      "ãģĬãģĭãģĴ": 5259,
      "æ±Ĺ": 5260,
      "ãĥľãĤ¹": 5261,
      "âĶģâĶģ": 5262,
      "è©°ãĤģ": 5263,
      "æ´»æĢ§": 5264,
      "ãĥĬãĤ¹": 5265,
      "ãĥ¢ãĥģ": 5266,
      "æĸĩåĮĸè²¡": 5267,
      "ãģ·": 5268,
      "åıĸãĤĬä¸ĬãģĴ": 5269,
      "ãĤ·ãĤ¢ãĤ¿ãĥ¼": 5270,
      "èħ¸": 5271,
      "ãģĭãģŃ": 5272,
      "å®ľ": 5273,
      "ä¸įåı¯": 5274,
      "ãĤ½éĢ£": 5275,
      "æĽ¸é¡ŀ": 5276,
      "å¤§åŃĹ": 5277,
      "ãĥĵãĥĥãĤ°": 5278,
      "äººæķ°": 5279,
      "ãĥ¡ãĤ¤ãĤ¯": 5280,
      "Â°": 5281,
      "éŁ³å£°": 5282,
      "è¡Ĺéģĵ": 5283,
      "åĭĺ": 5284,
      "åĬłå·¥": 5285,
      "ãĤ¯ãĤ¤": 5286,
      "ãĥĨãĥŃ": 5287,
      "éĸĭãģĳ": 5288,
      "ãĥ¢ãĥ³ãĤ¹ãĤ¿ãĥ¼": 5289,
      "ãĥ¯ãĤ¤ãĥ³": 5290,
      "ãĤĤãģŁãĤī": 5291,
      "ä¼¸ãģ³": 5292,
      "ä¸Ģä½ĵ": 5293,
      "ãĤ¤ãĥ³ãĤ¹ãĥĪãĥ¼ãĥ«": 5294,
      "éĢļè²¨": 5295,
      "ãĤ¸ãĥ£ãĥĥãĤ¯": 5296,
      "è¿·æĥĳ": 5297,
      "èĻİ": 5298,
      "ãģ©ãģĨãģĹãģ¦ãĤĤ": 5299,
      "ãĥľãĥ«": 5300,
      "çľĮåĨħ": 5301,
      "ãĥĹãĥŃãĥ¬ãĤ¹": 5302,
      "çī¹åħ¸": 5303,
      "ãĥŀãĥªãĤ¢": 5304,
      "ãģ®ãĤĬ": 5305,
      "ãĥ³ãĥĭ": 5306,
      "æŃ¦èĶµ": 5307,
      "çĲĥåĽ£": 5308,
      "ç«£å·¥": 5309,
      "æ¥½åĻ¨": 5310,
      "çµĮéģİ": 5311,
      "åĵģè³ª": 5312,
      "ç·ĬæĢ¥": 5313,
      "åĴĮæŃĮå±±": 5314,
      "éĭ¼": 5315,
      "ãĤ»ãĥŁãĥĬãĥ¼": 5316,
      "ç½®ãģį": 5317,
      "è§Ĵå·Ŀ": 5318,
      "æľŁéĻĲ": 5319,
      "ãĥģãĤ±ãĥĥãĥĪ": 5320,
      "ãģ¾ãĤĵ": 5321,
      "ãĥıãĥł": 5322,
      "åĽ½ä¼ļ": 5323,
      "ãĥ³ãĥĳãĤ¹": 5324,
      "éĸ²è¦§": 5325,
      "ãĥĹãĥŃãĥķãĤ£ãĥ¼ãĥ«": 5326,
      "å¹ķåºľ": 5327,
      "ãĢħæľ¨": 5328,
      "ç®ĩæīĢ": 5329,
      "å¤©çĦ¶": 5330,
      "æĶ¹èī¯": 5331,
      "æĮĩåĲį": 5332,
      "ãĤ½ãĥ¼ãĤ¹": 5333,
      "ãĥ«ãĤ¤": 5334,
      "ãĥĻãĥĪ": 5335,
      "éĸĭéĢļ": 5336,
      "çķ°å¸¸": 5337,
      "åĥ§": 5338,
      "ãģ¶ãĤĵ": 5339,
      "ãĤ±ãĤ¤": 5340,
      "ãĥģãĥ£ãĥ¬ãĥ³ãĤ¸": 5341,
      "ãĥıãĥ«": 5342,
      "ãģĦãĤįãģĦãĤįãģª": 5343,
      "åŁ·è¡Į": 5344,
      "ãĤ³ãĥ©ãĥľ": 5345,
      "å®¿æ³Ĭ": 5346,
      "åī²ãĤĬ": 5347,
      "åĪ¤å®ļ": 5348,
      "åı¸ä¼ļ": 5349,
      "åĤĺ": 5350,
      "æĳĤåıĸ": 5351,
      "ãĥĻãĥ³ãĥģ": 5352,
      "è¿Ķæ¸Ī": 5353,
      "ãģĿãĤĤãģĿãĤĤ": 5354,
      "éħ·": 5355,
      "åĪ¤æĺİ": 5356,
      "ãĢĬ": 5357,
      "ç´Ľ": 5358,
      "åħĪè¼©": 5359,
      "ãĤ«ãĥ¼ãĥ«": 5360,
      "å¹´æľ«": 5361,
      "ãĥ¯ãĤ¯": 5362,
      "è¦ıåīĩ": 5363,
      "ãĢĭ": 5364,
      "ãģĵãĤĮãģĭãĤī": 5365,
      "å·£": 5366,
      "åħ±ãģ«": 5367,
      "çµ¶å¯¾ãģ«": 5368,
      "åı¬": 5369,
      "ãģĤãĤīãĤĨãĤĭ": 5370,
      "éĻįãĤĬ": 5371,
      "éĸ¢å¿ĥ": 5372,
      "ãģ¾ãģĻ": 5373,
      "è¨¼åĪ¸": 5374,
      "æīĭæ³ķ": 5375,
      "æĻĤè¨Ī": 5376,
      "çŃĭèĤī": 5377,
      "æİ¢ãģĹ": 5378,
      "ãĤ¿ãĤ¤ãĥŁãĥ³ãĤ°": 5379,
      "åı°é¢¨": 5380,
      "ãĤ¢ãĥĭãĥ¡ãĥ¼ãĤ·ãĥ§ãĥ³": 5381,
      "ãĤ«ãĤ¹": 5382,
      "æľ¨æĽľ": 5383,
      "ãĤ¸ãĤ¢ãĥł": 5384,
      "è¦ģæľĽ": 5385,
      "ãĤ¨ãĥī": 5386,
      "ç®¡è½Ħ": 5387,
      "éĽĨåĲĪ": 5388,
      "ç¿Ķ": 5389,
      "åŁ·çŃĨ": 5390,
      "çŀ¬éĸĵ": 5391,
      "ãĤļ": 5392,
      "å°ıçĶ°": 5393,
      "ä¿¡åı·": 5394,
      "ãģĭãĤĮ": 5395,
      "éĢ²åĮĸ": 5396,
      "ãĥĪãĥ©ãĤ¤": 5397,
      "éĬĺ": 5398,
      "åįĬå³¶": 5399,
      "æĪĲæŀľ": 5400,
      "ãĤ·ãĥ§ãĥĥãĥĶãĥ³ãĤ°": 5401,
      "æĪ¦éļĬ": 5402,
      "ãĥīãĥ©ãĤ¤ãĥĲãĥ¼": 5403,
      "ãģ©ãģĨãģŀ": 5404,
      "ãĤ¹ãĤ¿ãĤ¸ãĤ¢ãĥł": 5405,
      "ãĥŀãĤ¯": 5406,
      "ãĥªãĤ³": 5407,
      "èĩ¨æĻĤ": 5408,
      "ãĤ¦ãĤ£ãĥ³": 5409,
      "ä¸ĸå¸¯": 5410,
      "å¿ĻãģĹ": 5411,
      "åıĹãģĳåıĸ": 5412,
      "é¨İå£«": 5413,
      "åķĨåºĹ": 5414,
      "èĳĽ": 5415,
      "é«ĺåº¦": 5416,
      "åĽŀæķ°": 5417,
      "å¸°ãĤĬ": 5418,
      "åħ«å¹¡": 5419,
      "å°¿": 5420,
      "æ²¢å±±": 5421,
      "ãĤ¯ãĤ¨ãĤ¹ãĥĪ": 5422,
      "æĬ½": 5423,
      "æĴ²": 5424,
      "åĨĴéĻº": 5425,
      "ãĤ·ãĤ¹": 5426,
      "å¾ĲãĢħãģ«": 5427,
      "ãĥķãĥĥãĥĪ": 5428,
      "ãģĹãģ°ãģĹãģ°": 5429,
      "åħ±èĳĹ": 5430,
      "åħ¥åı£": 5431,
      "ç¨²çĶ°": 5432,
      "çĶºç«ĭ": 5433,
      "ä½ĵèª¿": 5434,
      "æĭ¡å¼µ": 5435,
      "çĳŀ": 5436,
      "ãĤıãģļãģĭ": 5437,
      "çĦ¼ãģį": 5438,
      "çĻĴ": 5439,
      "èĢĥæħ®": 5440,
      "ãĥĩãĤ£ãĥ¬ãĤ¯ãĤ¿ãĥ¼": 5441,
      "è²¡çĶ£": 5442,
      "æī¿èªį": 5443,
      "ãĥĿãĥ¼ãĥ©ãĥ³ãĥī": 5444,
      "ä¼ļé¤¨": 5445,
      "ãģĦãģ£": 5446,
      "ãĥ³ãĥ¡ãĥ³ãĥĪ": 5447,
      "åīįåįĬ": 5448,
      "æĶ¾å°Ħ": 5449,
      "åīįä½ľ": 5450,
      "ãĥĻãĥ³": 5451,
      "æĬµæĬĹ": 5452,
      "ç½°": 5453,
      "é«ĺçŁ¥": 5454,
      "ãĥĺãĥ³": 5455,
      "åµĲ": 5456,
      "çĶ¨èªŀ": 5457,
      "ãģĤãĤĵ": 5458,
      "ãĥĳãĥķãĤ©ãĥ¼ãĥŀ": 5459,
      "ä½ıæīĢ": 5460,
      "ãĥ³ãĥĨãĥĬ": 5461,
      "è£ľåĬ©": 5462,
      "ãĥ´ãĤ¡ãĥ³": 5463,
      "è²¼": 5464,
      "ãĤŃãĤ·ãĤ³": 5465,
      "æŁı": 5466,
      "åīįè¿°": 5467,
      "ãĤ¸ãĤ§ãĤ¤": 5468,
      "ãĥĹãĥ¬ãĤ¹": 5469,
      "ä»ĺå±ŀ": 5470,
      "é¢¨åĳĤ": 5471,
      "æ¡ĳ": 5472,
      "å¡ŀ": 5473,
      "é§Ĩãģĳ": 5474,
      "çļ®èĨ": 5475,
      "ãĤ»ãĤŃãĥ¥": 5476,
      "ãĤ¢ãĤ¤ãĤ¹": 5477,
      "çĿ¡": 5478,
      "ãģĬãģĿ": 5479,
      "çķĻåŃ¦": 5480,
      "ãĤªãĥķãĤ£ãĤ¹": 5481,
      "ãĥªãĥ©": 5482,
      "è«¸å³¶": 5483,
      "ç«¯æľ«": 5484,
      "ãĥĳãĥ«": 5485,
      "æīĭæķ°": 5486,
      "åĪĨãģĭãĤĮ": 5487,
      "ãĥĳãĤ¿ãĥ¼ãĥ³": 5488,
      "ãģĻãģĶãģı": 5489,
      "ç´ĭ": 5490,
      "ãĥ´ãĤ¡ãĤ¤": 5491,
      "ãģ¾ãģ£ãģŁãģı": 5492,
      "ãĥ¬ãĤª": 5493,
      "æ±łçĶ°": 5494,
      "çĦ¡äºĭ": 5495,
      "ä¸¡æĸ¹": 5496,
      "åĬłãĤı": 5497,
      "æĸ½è¡ĵ": 5498,
      "æıĲæĲº": 5499,
      "ãģªãģ«": 5500,
      "ãģ©ãĤĬ": 5501,
      "å¹ħåºĥ": 5502,
      "ãĥĲãĤ¹ãĤ±ãĥĥãĥĪãĥľãĥ¼ãĥ«": 5503,
      "ä»»æĦı": 5504,
      "ä¸ĭãģĮ": 5505,
      "ç¿ĮæĹ¥": 5506,
      "éģķåıį": 5507,
      "èĤĿ": 5508,
      "ç¶¾": 5509,
      "éĩĳæ²¢": 5510,
      "åĩºæĿ¥äºĭ": 5511,
      "æĤĶ": 5512,
      "ãĤ¦ãĤ§ãĥ«": 5513,
      "ãģĮãģĦ": 5514,
      "ãĤ´ãĥ¼ãĥ«ãĥĩãĥ³": 5515,
      "åįĺç´Ķ": 5516,
      "ãĤ·ãĤ«": 5517,
      "æĪĳãģĮ": 5518,
      "æĺİãģĳ": 5519,
      "ãĤĵãģ©ãĤĵ": 5520,
      "çĽ¸äºĴ": 5521,
      "ãĥģãĥ£ãĥ³ãĤ¹": 5522,
      "ä¹Ļ": 5523,
      "ãĤ¤ãĤ¹ãĥ©": 5524,
      "ãĥĹãĥŃãĥĢãĤ¯ãĤ·ãĥ§ãĥ³": 5525,
      "çĻºéģĶ": 5526,
      "åĲ¹ãģį": 5527,
      "çļ®èĨļ": 5528,
      "ãĤĦãģı": 5529,
      "æ¦Ĥå¿µ": 5530,
      "ãĤ¬ãĥ©ãĤ¹": 5531,
      "ãĥ¬ãĥĵãĥ¥ãĥ¼": 5532,
      "çĶ³ãģĹè¾¼ãģ¿": 5533,
      "åĪĨå¸ĥ": 5534,
      "å¾³å·Ŀ": 5535,
      "è»įäºº": 5536,
      "--": 5537,
      "ãĥĳãĥ¼ãĥĨãĤ£ãĥ¼": 5538,
      "åĩºçı¾": 5539,
      "ãĥŃãĥ³ãĤ°": 5540,
      "åįĬåĪĨ": 5541,
      "ãĤ¯ãĤ¤ãĤº": 5542,
      "ãĥĨãĥĭãĤ¹": 5543,
      "åīįèº«": 5544,
      "(^^": 5545,
      "ãĥŃãĥŀ": 5546,
      "æ³ķåŃ¦": 5547,
      "è³ĩæľ¬": 5548,
      "æĪĳãĢħ": 5549,
      "åĽŀéģ¿": 5550,
      "ãĥıãĥ¼ãĥĪ": 5551,
      "æµ·å²¸": 5552,
      "ãĥŀãĤ¬ãĤ¸ãĥ³": 5553,
      "ãĥĪãĥł": 5554,
      "æ°´æĽľ": 5555,
      "æ°Ĺä»ĺ": 5556,
      "åĽĽåĽ½": 5557,
      "ãĤ¿ãĥ¼ãĥŁ": 5558,
      "ãģ©ãĤĵãģ©ãĤĵ": 5559,
      "èĤ¢": 5560,
      "çıįãģĹ": 5561,
      "ãģĦãĤįãĤĵãģª": 5562,
      "åŃĲä¼ļç¤¾": 5563,
      "åĭķãģĭ": 5564,
      "ãĤ¹ãĥŀãĥ¼ãĥĪãĥķãĤ©ãĥ³": 5565,
      "ãģ¾ãģłãģ¾ãģł": 5566,
      "ħåŃĲ": 5567,
      "è¬Ľæ¼Ķ": 5568,
      "ãĤ²ãĥ«": 5569,
      "è¤ĩéĽĳ": 5570,
      "ãĤ¹ãĤ¦ãĤ§": 5571,
      "ãĤ¹ãĥ«": 5572,
      "éĺ²å¾¡": 5573,
      "ãĥ¬ãĥ³ãĤ¿ãĥ«": 5574,
      "å¾Įç¶Ļ": 5575,
      "æĦŁæĥ³": 5576,
      "æļ®ãĤīãģĹ": 5577,
      "è»Ł": 5578,
      "åĽŀãĤĬ": 5579,
      "æ¼ı": 5580,
      "æĿ±å®Ŀ": 5581,
      "ãĤ¨ãĥĪ": 5582,
      "ãĥ¯ãĤ¤ãĥī": 5583,
      "ãĤĦãĤĦ": 5584,
      "éģİç¨ĭ": 5585,
      "ãĥķãĤ©ãĥ«ãĥĭãĤ¢": 5586,
      "æ·¡": 5587,
      "ãĥĥãĤ·ãĥ³ãĤ°": 5588,
      "ãĤŃãĤ¹": 5589,
      "éĥĬ": 5590,
      "ãģĻãĤĭãģ¨": 5591,
      "åĬłçĽŁ": 5592,
      "ä¸Ńéĥ¨": 5593,
      "å¥½ãģ¿": 5594,
      "èªŃå£²": 5595,
      "åĪ¥ãģ«": 5596,
      "ãģķãģĦ": 5597,
      "ãĥ¬ãĥĥãĤ¸": 5598,
      "åĲĪæĪĲ": 5599,
      "ãĥ¼ãĥģãĤ§": 5600,
      "éĿ¢åĢĴ": 5601,
      "ãĤ¢ãĥīãĥĲãĤ¤ãĤ¹": 5602,
      "ãģĤãģı": 5603,
      "æ»ŀåľ¨": 5604,
      "çī¹æĢ¥": 5605,
      "è¡¨éĿ¢": 5606,
      "è¨Ĥ": 5607,
      "è¨ºçĻĤ": 5608,
      "å¯¾æĬĹ": 5609,
      "çĽ¸åł´": 5610,
      "æİª": 5611,
      "èĿ": 5612,
      "å¾Įè¿°": 5613,
      "å°ĳãģĹãģ§ãĤĤ": 5614,
      "éľĢ": 5615,
      "ãĤ¢ãĥĢ": 5616,
      "æļĩ": 5617,
      "åı£ãĤ³ãĥŁ": 5618,
      "æĸľ": 5619,
      "ä¼ĳæŃ¢": 5620,
      "è¹": 5621,
      "æĭĴåĲ¦": 5622,
      "ãĥĴãĥ«": 5623,
      "ãĥĳãĥĳ": 5624,
      "å±Ī": 5625,
      "ãĤ¬ãĤ¤": 5626,
      "ãĥľãĥĥãĤ¯ãĤ¹": 5627,
      "ãĥĪãĥ³ãĥįãĥ«": 5628,
      "ãĥľãĥĩãĤ£": 5629,
      "éĸĭå¹ķ": 5630,
      "çĪĨçĻº": 5631,
      "ç´įå¾Ĺ": 5632,
      "äºĭä¾ĭ": 5633,
      "ãĤ¯ãĥªãĥ¼ãĥł": 5634,
      "åįģåŃĹ": 5635,
      "ãĥŁãĥ¥ãĥ¼ãĤ¸ãĤ·ãĥ£ãĥ³": 5636,
      "ãĥĲãĤ¤ãĤ¯": 5637,
      "é³¥åıĸ": 5638,
      "å±±æ¢¨": 5639,
      "åı¤å¢³": 5640,
      "æŁ´": 5641,
      "éģ·": 5642,
      "ãĥķãĤ£ãĥ«ãĥł": 5643,
      "ãĤ¢ãĤ«ãĤ¦ãĥ³ãĥĪ": 5644,
      "æµ¸": 5645,
      "äºŃ": 5646,
      "ä¿Ŀæľī": 5647,
      "éļİç´ļ": 5648,
      "äººå½¢": 5649,
      "åªĽ": 5650,
      "æĿ±éĥ¨": 5651,
      "ãĥĳãĥ¼ãĤ½ãĥĬ": 5652,
      "åİļçĶŁ": 5653,
      "å¯¾ç«ĭ": 5654,
      "ãĤ«ãĥªãĥķãĤ©ãĥ«ãĥĭãĤ¢": 5655,
      "å½¢çĬ¶": 5656,
      "ãĤ»ãĤŃãĥ¥ãĥªãĥĨãĤ£": 5657,
      "ãĥļãĥ«": 5658,
      "éĢĲ": 5659,
      "ãĥĦãĤ¤": 5660,
      "éĻµ": 5661,
      "ãĥľãĥ©": 5662,
      "å°ī": 5663,
      "ä¸Ĭæĺł": 5664,
      "ãģ¨ãģ«": 5665,
      "ãĥĵãĥ¥": 5666,
      "åºĥåł´": 5667,
      "ãĥ¯ãĤ·": 5668,
      "ä¼ļè¨Ī": 5669,
      "æĹ¦éĤ£": 5670,
      "ãĥŁãĤµãĤ¤ãĥ«": 5671,
      "ãĥ©ãĤ¤ãĤ¿ãĥ¼": 5672,
      "ä¸Ĭéĩİ": 5673,
      "æĮ¯èĪĪ": 5674,
      "è©ķè«ĸ": 5675,
      "äººå·¥": 5676,
      "åŃ¦è¡ĵ": 5677,
      "åĬ£": 5678,
      "æīĭç´Ļ": 5679,
      "è²·ãģĦçī©": 5680,
      "èµ¤ãģ¡ãĤĥãĤĵ": 5681,
      "ãĤªãĥ¼ãĤ¹ãĥĪãĥªãĤ¢": 5682,
      "è¦ĭç©į": 5683,
      "æĩĲ": 5684,
      "æ©Łç¨®": 5685,
      "æŃ£çĽ´": 5686,
      "æİªç½®": 5687,
      "åħµè¡Ľ": 5688,
      "ãģ¨ãģ«ãģĭãģı": 5689,
      "å¾ĵæ¥Ń": 5690,
      "æĥ³ãģĦ": 5691,
      "æĢ¥è¡Į": 5692,
      "äºĮãģ¤": 5693,
      "ãĤ¨ãĤ¹ãĥĨ": 5694,
      "é¡§å®¢": 5695,
      "ãĤ½ãĥĭãĥ¼": 5696,
      "å®ŁæĦŁ": 5697,
      "æĶ¹ãĤģãģ¦": 5698,
      "èĺŃ": 5699,
      "ãģ¯ãĤĭ": 5700,
      "éĢĢèģ·": 5701,
      "å»·": 5702,
      "å´©å£Ĭ": 5703,
      "ãĥĳãĥķãĤ©ãĥ¼ãĥŀãĥ³ãĤ¹": 5704,
      "ä½Ĳè³Ģ": 5705,
      "ä½Ļè£ķ": 5706,
      "åĩ½": 5707,
      "ãĤ¢ãĤ¤ãĥ«": 5708,
      "ãĤ´ãĥ¼": 5709,
      "åĴĮçĶ°": 5710,
      "èµ°è¡Į": 5711,
      "ãģªãĤı": 5712,
      "äººé¡ŀ": 5713,
      "ãģ±": 5714,
      "ãĥªãĥ¥ãĥ¼": 5715,
      "èĤª": 5716,
      "åħ¬è¡¨": 5717,
      "èĦĤèĤª": 5718,
      "ãģ«ãģ¡": 5719,
      "ãĥıãĤ¦": 5720,
      "çģ«æĽľ": 5721,
      "æ¡Ĥ": 5722,
      "æĦıå¤ĸ": 5723,
      "ãĥĳãĥ¼ãĤ½ãĥĬãĥªãĥĨãĤ£": 5724,
      "æ·³": 5725,
      "æĤªåĮĸ": 5726,
      "åĽ½éīĦ": 5727,
      "æ¢ģ": 5728,
      "åŃ¤": 5729,
      "ä¸Ńéĩİ": 5730,
      "æ¡Ĳ": 5731,
      "åĹ": 5732,
      "ãĤ´ãĥ¼ãĥ«ãĥī": 5733,
      "ãĥĻãĥĪãĥĬãĥł": 5734,
      "ãĤªãĥĹãĤ·ãĥ§ãĥ³": 5735,
      "ãĤ°ãĥ©ãĥ³ãĥī": 5736,
      "è¼¸åħ¥": 5737,
      "ãģŁãģ¨ãģĪãģ°": 5738,
      "ãĤµãĥĹãĥª": 5739,
      "ãĥĳãĥĥãĤ¯": 5740,
      "éįµ": 5741,
      "èģŀãģį": 5742,
      "ä»£ãĤı": 5743,
      "æ¥½å¤©": 5744,
      "æĸ°åŀĭ": 5745,
      "èªįçŁ¥": 5746,
      "ãĥŀãĤ¤ãĥ«": 5747,
      "ãĥĦãĤ£": 5748,
      "ãģĬãĤĤ": 5749,
      "ãĥ¡ãĤŃãĤ·ãĤ³": 5750,
      "ä»Ĭåº¦": 5751,
      "çĻºå°Ħ": 5752,
      "ãĤ¸ãĥł": 5753,
      "æĸĹ": 5754,
      "ãĤ¹ãĥĳãĤ¤": 5755,
      "ãĤ»ãĥ©": 5756,
      "ãĤ¿ãĤ¯ãĤ·ãĥ¼": 5757,
      "åĤµåĭĻ": 5758,
      "ãĥĩãĤ£ãĤ¹ãĤ¯": 5759,
      "ãģłãģ£ãģ¦": 5760,
      "ãģĨãģŁ": 5761,
      "éģĵåħ·": 5762,
      "ç¢ĳ": 5763,
      "æ°Ĺãģ«åħ¥": 5764,
      "æĲįå®³": 5765,
      "ãĤ«ãĥĨãĤ´": 5766,
      "ãĥĪãĥ¨": 5767,
      "ãģĦãģį": 5768,
      "é´": 5769,
      "ãģ¯ãģ£ãģįãĤĬ": 5770,
      "ãģ¨ãĤĤãģ¨": 5771,
      "å¤ĸäº¤": 5772,
      "æĸ°å¹¹ç·ļ": 5773,
      "ãĤĤãģ¨ãĤĤãģ¨": 5774,
      "çī¹éĽĨ": 5775,
      "äº«": 5776,
      "ç¹°ãĤĬ": 5777,
      "æľ¬å¡ģ": 5778,
      "åľ°ä½į": 5779,
      "è¶³ãĤĬ": 5780,
      "åģľçķĻ": 5781,
      "ãĤªãĥ¼ãĥĲãĥ¼": 5782,
      "ä¸Ģç¨®": 5783,
      "ãĤ¿ãĥ¼ãĥŁãĥĬãĥ«": 5784,
      "æĹ©ãĤģ": 5785,
      "æ¬¡ãģ«": 5786,
      "ãĤĨãģį": 5787,
      "éĽĩçĶ¨": 5788,
      "ãĤįãģĨ": 5789,
      "ãĥŃãĥ¼ãĤ«ãĥ«": 5790,
      "ãĥ¼ãĤ¸ãĤ§": 5791,
      "ãĥĩãĥ¼": 5792,
      "çĶŁæĪĲ": 5793,
      "å°ıéĩİ": 5794,
      "ãĤµãĤ¹": 5795,
      "å¸«åĽ£": 5796,
      "èµ·çĶ¨": 5797,
      "è»Ĭä½ĵ": 5798,
      "ãĥĹãĥ¬ãĥŁãĤ¢ãĥł": 5799,
      "åı¸æ³ķ": 5800,
      "ãĤ½ãĤ¦ãĥ«": 5801,
      "åĲĦåĽ½": 5802,
      "æĹ©ç¨²çĶ°": 5803,
      "çĽ®ç«ĭ": 5804,
      "æĥ³å®ļ": 5805,
      "çµĮç·¯": 5806,
      "æĦıæĢĿ": 5807,
      "åĪ¤æ±º": 5808,
      "æł½": 5809,
      "ä»»åĭĻ": 5810,
      "äººæĿĲ": 5811,
      "ãĤ¨ãĥł": 5812,
      "ãĥīãĥ¼ãĥł": 5813,
      "èµ·åĭķ": 5814,
      "è©¦ãģ¿": 5815,
      "ãĥŃãĤ´": 5816,
      "ãģłãĤĬ": 5817,
      "ãĤ¹ãĥĨãĥ¼ãĤ·ãĥ§ãĥ³": 5818,
      "ãĥĿãĥ«ãĥĪ": 5819,
      "èĩªç¤¾": 5820,
      "æĪ¦åĽ½": 5821,
      "ä»ķçµĦãģ¿": 5822,
      "ãĤ³ãĤ¤ãĥ³": 5823,
      "ãĤ¨ãĥķ": 5824,
      "åĩºçĻº": 5825,
      "æģ¥": 5826,
      "çĻºä¿¡": 5827,
      "è§£éĩĪ": 5828,
      "ãĤ¹ãĤ¦ãĤ§ãĥ¼ãĥĩãĥ³": 5829,
      "ãĥĩãĤ£ãĤº": 5830,
      "å¤§åįĬ": 5831,
      "ãģĬãģĦãģĹ": 5832,
      "æĽ½": 5833,
      "æ°ĳåĽ½": 5834,
      "åīįå¹´": 5835,
      "çĽ¸æĴ²": 5836,
      "åľ§åĢĴ": 5837,
      "å¼ķãģįç¶Ļ": 5838,
      "ãģĬãģĿãĤīãģı": 5839,
      "ä¿Ŀéļľ": 5840,
      "æīķãģĦ": 5841,
      "æł¼éĹĺ": 5842,
      "çº": 5843,
      "ãģĵãģĪ": 5844,
      "ãĤ±ãĥ¼ãĥĪ": 5845,
      "éĸ¢æķ°": 5846,
      "ãĤ¢ãĥ¡ãĥªãĤ«ãĥ³": 5847,
      "ãĥĸãĥ¬ãĤ¤": 5848,
      "ãĤ²ãĥĥãĥĪ": 5849,
      "åĩºãģĭãģĳ": 5850,
      "éłĨä½į": 5851,
      "éĩįè¦ĸ": 5852,
      "ä¿ĥéĢ²": 5853,
      "ãĥĢãĥ¡ãĥ¼ãĤ¸": 5854,
      "éĸīéİĸ": 5855,
      "æĪ¦è»Ĭ": 5856,
      "æľ¨æĿĳ": 5857,
      "å½«": 5858,
      "å¾ĮãĤį": 5859,
      "æĦĽåªĽ": 5860,
      "ãĤ¹ãĥŃ": 5861,
      "çĶ³ãģĹè¨³": 5862,
      "çĩĥæĸĻ": 5863,
      "è¨´ãģĪ": 5864,
      "ãĥĵãĥ¼ãĥ«": 5865,
      "æľ¬å¡ģæīĵ": 5866,
      "ãĥĭãĥĥãĥĿãĥ³": 5867,
      "ãĥķãĤ¡ãĥŁãĥªãĥ¼": 5868,
      "ãĤ¸ãĥ£ãĥ³ãĥ«": 5869,
      "çµĤãĤıãĤĬ": 5870,
      "åĮł": 5871,
      "å½ĵãģŁãĤĬåīį": 5872,
      "åĳī": 5873,
      "ãĥªãĥĭãĥ¥ãĥ¼": 5874,
      "è»Ĵ": 5875,
      "ãĥĳãĥĥãĤ±": 5876,
      "ä¿Ŀåģ¥": 5877,
      "ãĤĦãģĮ": 5878,
      "èĺĩ": 5879,
      "èĨľ": 5880,
      "æ¸ĽãĤī": 5881,
      "æµ·ä¸Ĭ": 5882,
      "æħĭåº¦": 5883,
      "äº®": 5884,
      "ç¯ł": 5885,
      "ãĥĳãĥĥãĤ±ãĥ¼ãĤ¸": 5886,
      "å¼ĵ": 5887,
      "è¡¨æĺİ": 5888,
      "æĽ¹": 5889,
      "åĽ£åľ°": 5890,
      "ãĤ¦ãĥī": 5891,
      "å¸Ĥè¡Ĺ": 5892,
      "æĦĽç§°": 5893,
      "æ»ĭè³Ģ": 5894,
      "ç²Ĵ": 5895,
      "ãģĦãģıãĤī": 5896,
      "ãĥķãĤ©ãĥ¼": 5897,
      "æ¼ĶåĬĩ": 5898,
      "ãĥĴãĥ¼ãĥŃ": 5899,
      "é«ĺãģ¾": 5900,
      "¦ãĤģ": 5901,
      "ãĥĨãĥ¼ãĥĸãĥ«": 5902,
      "ãģ©ãģ®ãĤĪãģĨ": 5903,
      "åĨįåº¦": 5904,
      "ãĥ³ãĥĮ": 5905,
      "ãĥĿãĥ¼ãĤ¿ãĥ¼": 5906,
      "ãĥªãĥĭãĥ¥ãĥ¼ãĤ¢ãĥ«": 5907,
      "ãģ¯ãģĺ": 5908,
      "ãĤ³ãĥ³ãĥĪãĥŃãĥ¼ãĥ«": 5909,
      "ãĥīãĥ©ãĤ¤ãĥĸ": 5910,
      "æ½¤": 5911,
      "ãĥĻãĥ¼ãĥĪ": 5912,
      "ãģĤãģıãģ¾ãģ§": 5913,
      "è¦ĸçĤ¹": 5914,
      "å·®åĪ¥": 5915,
      "å¤īæıĽ": 5916,
      "çıł": 5917,
      "çĻĤæ³ķ": 5918,
      "ç´°ãģĭ": 5919,
      "æ¯İæľĪ": 5920,
      "éĤ¸": 5921,
      "é«ĺç´ļ": 5922,
      "èĭ±åĽ½": 5923,
      "å¤ªçĶ°": 5924,
      "ãģµãĤĮ": 5925,
      "ä¸ĢçĶŁ": 5926,
      "éĻĦå±ŀ": 5927,
      "è¡ĽæĺŁ": 5928,
      "ãģĬãĤĪãģĿ": 5929,
      "ãĥķãĤ¡ãĥ³ãĤ¿": 5930,
      "çĦ¡ç·ļ": 5931,
      "å¼ķãģįç¶ļãģį": 5932,
      "è¦ıæł¼": 5933,
      "è¡ĽçĶŁ": 5934,
      "ãĥīãĤŃãĥ¥": 5935,
      "ãĥ¤ãĥ³": 5936,
      "èĵĦ": 5937,
      "ãĤ¬ãĥ¼ãĥ«": 5938,
      "ãĥ©ãĤ¯": 5939,
      "å£²ãĤĮ": 5940,
      "å¤©ä½¿": 5941,
      "åĬĩåĽ£": 5942,
      "ãĥ¢ãĥĲ": 5943,
      "ãĥİãĥ¼ãĥĪ": 5944,
      "å¿«éģ©": 5945,
      "å¾¹åºķ": 5946,
      "ãĤĢãĤī": 5947,
      "ä¸Ńåı¤": 5948,
      "ãģĤãĤĭç¨ĭåº¦": 5949,
      "ãģĤãģĪãģļ": 5950,
      "ãĥŃãĥĥ": 5951,
      "èĦħ": 5952,
      "éĺ»": 5953,
      "æİ§ãģĪ": 5954,
      "ãĤĤãģ£ãģ¨ãĤĤ": 5955,
      "åĲĮãģĺãĤĪãģĨãģ«": 5956,
      "èİ": 5957,
      "ãĥĨãĤ£ãĥ¼": 5958,
      "ãĤŃãĥ£ãĥ³ãĥĹ": 5959,
      "ãĤ»ãĥĹãĥĪ": 5960,
      "èĳĹåĲį": 5961,
      "ãĤ¯ãĥ©ãĤ¤ãĥĬ": 5962,
      "æľīæĸĻ": 5963,
      "ãĤ·ãĥ¥ãĤ¿": 5964,
      "ãĥĸãĥ©ãĤ¤": 5965,
      "çķ¿": 5966,
      "ä¸Ńå±±": 5967,
      "åĲįä¹Ĺ": 5968,
      "ãģįãĤĩãģĨ": 5969,
      "æ±ºãģĹãģ¦": 5970,
      "è²°": 5971,
      "æİ²ãģĴ": 5972,
      "ãĥķãĥ©ãĥ³ãĤ¯": 5973,
      "åĵī": 5974,
      "èį·çī©": 5975,
      "ãĥŁãĥ«": 5976,
      "*)": 5977,
      "éĲ": 5978,
      "è¦ĭçĽ´": 5979,
      "ãĥĩãĤ£ãĤ¹": 5980,
      "è¦ªãģĹ": 5981,
      "ãĥĬãĥĵ": 5982,
      "ãģįãĤĮãģĦ": 5983,
      "âĢķâĢķ": 5984,
      "æļ´åĬĽ": 5985,
      "äºĪåĤĻ": 5986,
      "ãģķãģ¨": 5987,
      "æľĪåĪĬ": 5988,
      "ãĤ¶ãĥ³": 5989,
      "å¯¾åĩ¦": 5990,
      "æ¬¡åĽŀ": 5991,
      "éħ¸åĮĸ": 5992,
      "éħĶ": 5993,
      "ãģ£ãģŁãĤĬ": 5994,
      "ä»»åĳ½": 5995,
      "ãĤ¦ãĤ¯ãĥ©ãĤ¤ãĥĬ": 5996,
      "ãĤ¸ãĥ£ãĥ¼ãĥĬ": 5997,
      "åĮĹæľĿé®®": 5998,
      "é¦ĻãĤĬ": 5999,
      "æīī": 6000,
      "ãĥĬãĥ³ãĥĲãĥ¼": 6001,
      "æ²¿ãģĦ": 6002,
      "æĤªéŃĶ": 6003,
      "æĴ¤éĢĢ": 6004,
      "çµŀ": 6005,
      "æıĲç¤º": 6006,
      "åħ¨èº«": 6007,
      "ãĤ¨ãĥŃ": 6008,
      "è²¿": 6009,
      "ãĤ·ãĥ³ãĥĹãĥ«": 6010,
      "æĢ§è³ª": 6011,
      "ç¥ĸçĪ¶": 6012,
      "ãĥĿãĥ«": 6013,
      "åĪĿå¿ĥ": 6014,
      "ãģ¨ãĤĬãģĤãģĪãģļ": 6015,
      "åĩį": 6016,
      "çĦ¦": 6017,
      "æİ²ç¤º": 6018,
      "å®Łå®¶": 6019,
      "åĩºçĶ£": 6020,
      "ãĥģãĥ£ãĥ³": 6021,
      "ãģ§ãģįãĤĭ": 6022,
      "é¢¨æĻ¯": 6023,
      "ç·łçµĲ": 6024,
      "è¥¿æ´ĭ": 6025,
      "æĦŁåĭķ": 6026,
      "çĶŁãģ¿åĩº": 6027,
      "ãĥĲãĤ¤ãĥĪ": 6028,
      "ãĤ³ãĥ¼ãĥĪ": 6029,
      "æĤ²ãģĹ": 6030,
      "ãĥįãĥŀ": 6031,
      "åįĶå®ļ": 6032,
      "ãĤµãĥ¼ãĥĲãĥ¼": 6033,
      "åıĹç«ł": 6034,
      "ãĤ¢ãĤ¤ãĥ«ãĥ©ãĥ³ãĥī": 6035,
      "åıİå®¹": 6036,
      "åĳ½åĲį": 6037,
      "ãĥĪãĥ¨ãĤ¿": 6038,
      "è§£éĻ¤": 6039,
      "ãĥ¢ãĥ¼ãĤ¿ãĥ¼": 6040,
      "ãĥīãĥ©ãĥł": 6041,
      "çĮĽ": 6042,
      "ãĤ¢ãĥ¬ãĥ³ãĤ¸": 6043,
      "çĻ»æĿ¿": 6044,
      "èĸ©": 6045,
      "å¦ĥ": 6046,
      "ãĤ¤ãĥĬãĥ¼": 6047,
      "ãĤĬãĤĵ": 6048,
      "ãģĻãģªãĤı": 6049,
      "ãģĻãģªãĤıãģ¡": 6050,
      "ãĥ¢ãĥ¼ãĥ«": 6051,
      "éĢ£éļĬ": 6052,
      "æ¸¬å®ļ": 6053,
      "ãĤ«ãĥ¬": 6054,
      "âĢĻ": 6055,
      "åģı": 6056,
      "æŃĵ": 6057,
      "ãĤ¹ãĥł": 6058,
      "ãĥĩãĤ¢": 6059,
      "éĢļçŁ¥": 6060,
      "ãģ£ãģĵãģĨ": 6061,
      "è²·åıİ": 6062,
      "å®£ä¼Ŀ": 6063,
      "æİ¨å®ļ": 6064,
      "ãĤ¹ãĥĨãĥĥãĥĹ": 6065,
      "éĽ»éīĦ": 6066,
      "ä»ıæķĻ": 6067,
      "å¤ĸç§ĳ": 6068,
      "æ¸©åº¦": 6069,
      "æľ¬ä½ĵ": 6070,
      "ãģĤãģ£": 6071,
      "è²¿æĺĵ": 6072,
      "èĻĲ": 6073,
      "ãĥ¡ãĥĢ": 6074,
      "çªģãģį": 6075,
      "éĩįéĩı": 6076,
      "ä¾ĿåŃĺ": 6077,
      "ãģĿãĤĮãģĭãĤī": 6078,
      "ãģĬãģĭãģĹ": 6079,
      "ãĥŁãĥ©": 6080,
      "æŃ¢ãģ¾": 6081,
      "éĸĭæł¡": 6082,
      "ãĤ±ãĥ¼ãĥĸãĥ«": 6083,
      "ä¸Ńå³¶": 6084,
      "ãĥĹãĥ«": 6085,
      "çĥĪ": 6086,
      "ãģ¦ãĤĵ": 6087,
      "é§ĨéĢĲ": 6088,
      "åĮ¹": 6089,
      "åĩĦ": 6090,
      "è»¢æıĽ": 6091,
      "ãĥĸãĥ«ãĤ¯": 6092,
      "ä¾¯": 6093,
      "ãĥ©ãĥ¼ãĥ¡ãĥ³": 6094,
      "ãĤ¹ãĤ¤ãĤ¹": 6095,
      "ç¢ºçİĩ": 6096,
      "å¾Ģå¾©": 6097,
      "ä½ĲãĢħæľ¨": 6098,
      "é·¹": 6099,
      "ãĤŃãĥ£ãĥ³ãĥĳãĤ¹": 6100,
      "æĮ¿åħ¥": 6101,
      "æĸĲ": 6102,
      "è©ķåĪ¤": 6103,
      "èŃ²æ¸¡": 6104,
      "ãĥ©ãĥ³ãĥģ": 6105,
      "ãģıãģ¨ãĤĤ": 6106,
      "å¼ŁåŃĲ": 6107,
      "ä¸įè¦ģ": 6108,
      "ãģ¤ãģª": 6109,
      "ãģ£ãģĵ": 6110,
      "âĨĲ": 6111,
      "æĸ¬": 6112,
      "éĢ¸": 6113,
      "ãĥªãĥĴ": 6114,
      "ç¥ŀè©±": 6115,
      "éĥ½éģĵ": 6116,
      "èĭ¥èĢħ": 6117,
      "ãĥ¼ãĥĬãĤ¹": 6118,
      "åįĺè¡Į": 6119,
      "éĢļè²©": 6120,
      "ãĥ¡ãĥŃ": 6121,
      "è¦ĭåŃ¦": 6122,
      "èĹ©ä¸»": 6123,
      "ãĥŀãĥĥãĤ¯ãĤ¹": 6124,
      "ãĥĵãĤ¿": 6125,
      "ãģªãģ®ãģ§": 6126,
      "åªĴ": 6127,
      "è³Ĭ": 6128,
      "åıĹä¿¡": 6129,
      "é¦Ļå·Ŀ": 6130,
      "è¦³å¯Ł": 6131,
      "ãĥ¢ãĥ¼ãĤ·ãĥ§ãĥ³": 6132,
      "å®¹æĺĵ": 6133,
      "ãĤ³ãĤ¢": 6134,
      "çĶ³è¾¼": 6135,
      "çĿ¡çľł": 6136,
      "åĮĹäº¬": 6137,
      "æķ·åľ°": 6138,
      "åŀĤ": 6139,
      "å±ĭæł¹": 6140,
      "åĬłãģĪãģ¦": 6141,
      "éĢļãģĹãģ¦": 6142,
      "çİĭèĢħ": 6143,
      "ãĥķãĤ£ãĤ¢": 6144,
      "ãĥ¢ãĥĲãĤ¤ãĥ«": 6145,
      "åħĪçĻº": 6146,
      "åĮºçĶ»": 6147,
      "ä»»ãģĽ": 6148,
      "ãĤ¯ãĥªãĥĭãĥĥãĤ¯": 6149,
      "ãĥ¢ãĥĭ": 6150,
      "åľĭ": 6151,
      "ãĥ»ãĥ»ãĥ»ãĥ»": 6152,
      "éº¦": 6153,
      "ãĥ¼ãĤ¸ãĥ¥": 6154,
      "åıĤèŃ°éĻ¢": 6155,
      "éĿ´": 6156,
      "ä»ĺãģįåĲĪ": 6157,
      "ä½ķãģ®": 6158,
      "è¥¿æŃ¦": 6159,
      "åĮºåĪ¥": 6160,
      "ç§ģç«ĭ": 6161,
      "ãĥŁãĥ¥ãĥ¼ãĤ¸ãĤ«ãĥ«": 6162,
      "ä¼ĳæĹ¥": 6163,
      "æ½ľæ°´": 6164,
      "ä¸ĬãģĮãĤĬ": 6165,
      "éļ·": 6166,
      "çĸ«": 6167,
      "ãĤ¤ãĥ³ãĥĨ": 6168,
      "ãĤĢãģĹãĤį": 6169,
      "åĳª": 6170,
      "ãĥ³ãĤµãĥ¼": 6171,
      "åĳ½ãģĺ": 6172,
      "æħ°": 6173,
      "å¾©èĪĪ": 6174,
      "åħ¥éĻ¢": 6175,
      "èŃ¦åĤĻ": 6176,
      "å§Ķè¨Ĺ": 6177,
      "æĹĭ": 6178,
      "ä»®æĥ³": 6179,
      "èķ": 6180,
      "ãĥ³ãĤº": 6181,
      "ãĤ³ãĥ¼": 6182,
      "ç¦Ħ": 6183,
      "åłħ": 6184,
      "ä¿¡ä»°": 6185,
      "ãĤ»ãĥ³ãĥģ": 6186,
      "å¾ª": 6187,
      "è¦ģåĽł": 6188,
      "ä¸Ńéĸĵ": 6189,
      "æµ®ãģĭ": 6190,
      "ãģĿãģ°": 6191,
      "ãĤ¼ãĥ«ãĤ¹": 6192,
      "èĩªæ®º": 6193,
      "ãģĭãģªãĤĬãģ®": 6194,
      "ãĤ½ãĥĵ": 6195,
      "ãĤŃãĥ©": 6196,
      "çµ±æ²»": 6197,
      "æ¬Ħ": 6198,
      "éĻ³": 6199,
      "ãĥĲãĥª": 6200,
      "ãĤ¨ãĥ³ãĥī": 6201,
      "å«ĮãģĦ": 6202,
      "ç·Ĭå¼µ": 6203,
      "åįłéłĺ": 6204,
      "åºľçľĮ": 6205,
      "ãĤ¹ãĤ±ãĥ¼ãĥĪ": 6206,
      "çĦ¡é§Ħ": 6207,
      "æ´»ãģĭ": 6208,
      "ãĤ¯ãĥ©ãĤ·ãĥĥãĤ¯": 6209,
      "æĶ¹ä¿®": 6210,
      "äºĶéĥİ": 6211,
      "åħ·åĲĪ": 6212,
      "è³ĩæºĲ": 6213,
      "ãĤ³ãĥŁãĥĥãĤ¯ãĤ¹": 6214,
      "ãĥıãĥĥ": 6215,
      "ãģĤãĤıãģĽ": 6216,
      "ãĥ¼ãĥĲãĥ«": 6217,
      "ãģĨãĤĭ": 6218,
      "ç¢ºç«ĭ": 6219,
      "ãģĦãĤĪ": 6220,
      "å©ļæ´»": 6221,
      "è¿ĳãģ¥": 6222,
      "çĻºéĢģ": 6223,
      "æľªæºĢ": 6224,
      "ãĤ«ãĤ¹ãĤ¿": 6225,
      "çĿĢçĶ¨": 6226,
      "çĢ¬æĪ¸": 6227,
      "åīįæıĲ": 6228,
      "å¼·åĬĽ": 6229,
      "çĽ£è¦ĸ": 6230,
      "åĳ³ãĤı": 6231,
      "ãĤ¨ãĤ¸": 6232,
      "å®Ŀå¡ļ": 6233,
      "å´ĩ": 6234,
      "åĽ½åľŁ": 6235,
      "åŁĭãĤģ": 6236,
      "åĲĮæĦı": 6237,
      "âĩ": 6238,
      "ãģĳãģĦ": 6239,
      "éĿĴå±±": 6240,
      "é»Ļ": 6241,
      "âĪĴ": 6242,
      "å±ħä½ı": 6243,
      "å®ŁåĬĽ": 6244,
      "å°ĳãģĹãģļãģ¤": 6245,
      "è¡Įäºĭ": 6246,
      "ãĤ¿ãĥ¼ãĤº": 6247,
      "èĬ¸äºº": 6248,
      "è¾ŀåħ¸": 6249,
      "å¾ªçĴ°": 6250,
      "å¥®": 6251,
      "ç°¿": 6252,
      "åľŃ": 6253,
      "ãĤ³ãĥ³ãĤ»ãĥĹãĥĪ": 6254,
      "ä¿Ŀç®¡": 6255,
      "ãĤ²ãĥ¼ãĥĪ": 6256,
      "å¡Ĺè£ħ": 6257,
      "ãģĭãĤıãģĦ": 6258,
      "ãģĺãĤĩãģĨ": 6259,
      "ãĤ¢ãĥĹãĥªãĤ±ãĥ¼ãĤ·ãĥ§ãĥ³": 6260,
      "ãģĿãĤĮãģłãģĳ": 6261,
      "ãĤ³ãĥ¼ãĥ©": 6262,
      "ãĤ¨ãĥ³ãĤ¿ãĥĨãĤ¤": 6263,
      "åıĻ": 6264,
      "ãĥĨãĤ£ãĥĥãĤ¯": 6265,
      "ãĤ·ãĤ§ãĥ«": 6266,
      "ãģĬåīį": 6267,
      "ä¸įèī¯": 6268,
      "åĻĤ": 6269,
      "ãĥĨãĥĥãĥī": 6270,
      "ãĥĲãĤ«": 6271,
      "ãĥŃãĤ¦": 6272,
      "ãĥŀãĥĥãĥĹ": 6273,
      "æģĲæĢĸ": 6274,
      "ãĤ·ãĥ§ãĥ¼ãĥĪ": 6275,
      "åħ¥åĽ£": 6276,
      "ãĥ©ãĤ¹ãĥĪ": 6277,
      "ãĤĦãģĮãģ¦": 6278,
      "||||||||": 6279,
      "åīµéĢł": 6280,
      "ãĤ·ãĤ§ãĤ¢": 6281,
      "ãĥķãĥŃãĥ³ãĥĪ": 6282,
      "ç§»ä½ı": 6283,
      "ãĥįãĥ¼ãĥł": 6284,
      "æİĥéĻ¤": 6285,
      "ä¸Ģèĩ´": 6286,
      "è²´éĩį": 6287,
      "ãĥĵãĤ¸ãĥ§ãĥ³": 6288,
      "çĽ£ä¿®": 6289,
      "ãģªãģĤ": 6290,
      "ä¸ĢæĹı": 6291,
      "æĶ¾æĺł": 6292,
      "èħĲ": 6293,
      "éĿĴæĺ¥": 6294,
      "æł½åŁ¹": 6295,
      "ãĤµãĤ¤ãĤ¯ãĥ«": 6296,
      "ãĥŀãĤ°": 6297,
      "^)": 6298,
      "æĿ¾å±±": 6299,
      "ãģĹãĤĤ": 6300,
      "èĢķ": 6301,
      "çĲ´": 6302,
      "ãĥ¬ãĤ·": 6303,
      "ãĥīãĤŃ": 6304,
      "éģ¸æĬľ": 6305,
      "æ¬¡åħĥ": 6306,
      "åĺĺ": 6307,
      "ãĥ¼ãĥŀãĥ¼": 6308,
      "å¼ķãģįèµ·ãģĵ": 6309,
      "åħĪè¡Į": 6310,
      "éĥ¨åĵģ": 6311,
      "äººäºĭ": 6312,
      "çĸ¾æĤ£": 6313,
      "éĥ¨ä¸ĭ": 6314,
      "æŃ¦è£ħ": 6315,
      "åĲĲ": 6316,
      "æĻĭ": 6317,
      "å¹¸ãģĦ": 6318,
      "è¾°": 6319,
      "æıº": 6320,
      "ãĥĸãĥ¬ãĥ¼": 6321,
      "ãĥŀãĤ¤ãĤ±ãĥ«": 6322,
      "ãĥ¼ãĥ¤": 6323,
      "ãĥ©ãĤ¤ãĤªãĥ³": 6324,
      "ãĤĪãģ£ãģ¦": 6325,
      "åĲĪåĲĮ": 6326,
      "æııåĨĻ": 6327,
      "æĹ¥ç¨ĭ": 6328,
      "ãĤªãĥ¬": 6329,
      "ä¹ħãģĹ": 6330,
      "åĭĿè²ł": 6331,
      "ä¸įæºĢ": 6332,
      "æĶ¹ãĤģ": 6333,
      "å·¨äºº": 6334,
      "ãĢĶ": 6335,
      "ãĤ®ãĥ£ãĥ©ãĥªãĥ¼": 6336,
      "æĿ¾ç«¹": 6337,
      "ãĤ±ãĥ¼ãĤŃ": 6338,
      "çŁŃç·¨": 6339,
      "ãĤ¨ãĥĩãĤ£": 6340,
      "ãĤŃãĥ£ãĥ³ãĤ»ãĥ«": 6341,
      "ãĥĩãĤ¶ãĤ¤ãĥĬãĥ¼": 6342,
      "ãĢķ": 6343,
      "é¡§åķı": 6344,
      "ãĤ¤ãĥ¼": 6345,
      "ãĤ¹ãĥĪãĤ¢": 6346,
      "ãģ£ãģ·": 6347,
      "ãĤ¾ãĥ³": 6348,
      "ãĥķãĤ£ãĥªãĥĶãĥ³": 6349,
      "ãĥĿãĥĥãĥĹ": 6350,
      "ãĥŁãĥª": 6351,
      "æ°Ĺè±¡": 6352,
      "è¬¡": 6353,
      "ãģ¨ãģ£ãģ¦ãĤĤ": 6354,
      "æĦıåĽ³": 6355,
      "åħ¼ãģŃ": 6356,
      "å¤ļå°ĳ": 6357,
      "ãĥŁãĥĥãĤ·ãĥ§ãĥ³": 6358,
      "ãĥķãĤ§ãĥ«": 6359,
      "éģ¿éĽ£": 6360,
      "ä¸Ńä¸ĸ": 6361,
      "ãĥŀãĥįãĥ¼ãĤ¸": 6362,
      "ãĤ¢ãĤ¿": 6363,
      "ãģķãģıãĤī": 6364,
      "ãģĩ": 6365,
      "è¡°": 6366,
      "å¼µãĤĬ": 6367,
      "åħ¨çĦ¶": 6368,
      "æĸ°çĶ°": 6369,
      "ãĥŁãĤ¹ãĥĨ": 6370,
      "æĶ¯éĥ¨": 6371,
      "ãĤ»ãĥ¼ãĥ«": 6372,
      "ãĤ¬ãĥªãĥ¼": 6373,
      "ãĥĻãĥĥãĥĪ": 6374,
      "ä¼¸ãģ°": 6375,
      "å°ĳãģªãģıãģ¨ãĤĤ": 6376,
      "å¾ĵäºĭ": 6377,
      "è¥²æĴĥ": 6378,
      "æ°Ĺæ¸©": 6379,
      "ãĥŃãĥĲãĥ¼ãĥĪ": 6380,
      "çµµçĶ»": 6381,
      "æĿ¥åºĹ": 6382,
      "ãĥĴãĥ¼ãĥŃãĥ¼": 6383,
      "å¤īèº«": 6384,
      "ç©ºè»į": 6385,
      "ãĤ¨ãĥ¼ãĥ«": 6386,
      "èŀįè³ĩ": 6387,
      "ãĤªãĤ¤ãĥ«": 6388,
      "ãĥĹãĤ¹": 6389,
      "è²łåĤ·": 6390,
      "ãĥĿãĤ¹ãĥĪ": 6391,
      "å¥³çİĭ": 6392,
      "ãĤªãĥļãĥ©": 6393,
      "åĻ´": 6394,
      "è¦³å®¢": 6395,
      "æŃ¦çĶ°": 6396,
      "ä¿ĿæĮģ": 6397,
      "ãģ°ãĤĵ": 6398,
      "ãĥ´ãĤ§ãĥ«": 6399,
      "éĬĢæ²³": 6400,
      "ãĤ«ãĥł": 6401,
      "äºĮåįģ": 6402,
      "éħµç´ł": 6403,
      "åı©": 6404,
      "å½¹ç«ĭ": 6405,
      "ãĤ¢ãĥ«ãĥĲãĤ¤ãĥĪ": 6406,
      "ãĤµãĤ¤ãĥ³": 6407,
      "ãĥĺãĤ¢": 6408,
      "ãĥ¼ãĤ¯ãĥ«": 6409,
      "ãĥ¼ãĥĬãĥ¡ãĥ³ãĥĪ": 6410,
      "çµĲåĲĪ": 6411,
      "ãĥıãĥ¯ãĤ¤": 6412,
      "åľ°çĤ¹": 6413,
      "ãĤ½ãĥĵãĤ¨ãĥĪ": 6414,
      "å£²ä¸Ĭ": 6415,
      "ãĥģãĤ¢": 6416,
      "èī¯ãģķ": 6417,
      "è¨ĺåħ¥": 6418,
      "èªŃèĢħ": 6419,
      "ãģłãģĭ": 6420,
      "ç¹Ĭ": 6421,
      "è²¡æĶ¿": 6422,
      "ãĥĩãĥ¢": 6423,
      "åįģåĪĨãģ«": 6424,
      "éķ·å¹´": 6425,
      "ãģ¨ãģ©": 6426,
      "èĨ¨": 6427,
      "æĶ¿åħļ": 6428,
      "ãĤ¹ãĤ«ãĤ¤": 6429,
      "åĩºå¸Ń": 6430,
      "ãĤ¸ãĤ§ãĥ¼ãĥł": 6431,
      "ãģ¯ãĤĦ": 6432,
      "ãģ¡ãĤĩãģĨãģ©": 6433,
      "ãĤ¹ãĥ¼ãĥĦ": 6434,
      "è¡¨å½°": 6435,
      "ãĤ¨ãĥ¼ãĤ¹": 6436,
      "è¢«çģ½": 6437,
      "åĽŀåıİ": 6438,
      "ãĤ³ãĥ³ãĥĳ": 6439,
      "ãĥĵãĥª": 6440,
      "ãģĭãģŁ": 6441,
      "é«ĺçĶ°": 6442,
      "ãĥŀãĥĥãĤµ": 6443,
      "éľ§": 6444,
      "ãĤ¦ãĥĪ": 6445,
      "è¾»": 6446,
      "ãģĻãģ¿": 6447,
      "åĲĪæĦı": 6448,
      "ãĥªãĥ¼ãĥī": 6449,
      "æ¤İ": 6450,
      "ä¾į": 6451,
      "ãĤ·ãĥ£ãĥĦ": 6452,
      "é£Łãģ¹çī©": 6453,
      "åĢĭåĪ¥": 6454,
      "ãĥģãĥ¥ãĤ¢": 6455,
      "è²Ŀ": 6456,
      "ä½ľèĢħ": 6457,
      "ãĥ¬ãĥ³ãĤº": 6458,
      "äº¤éŁ¿": 6459,
      "ãĤŃãĥ£ãĤ¹ãĤ¿ãĥ¼": 6460,
      "æįī": 6461,
      "è¨Ł": 6462,
      "åħµå£«": 6463,
      "ç¬¦": 6464,
      "èªįè¨¼": 6465,
      "è¡ĿæĴĥ": 6466,
      "åĮ»èĢħ": 6467,
      "ãĤ¸ãĤ§ãĥĥãĥĪ": 6468,
      "ç·ıåĭĻ": 6469,
      "æŁĶéģĵ": 6470,
      "åĨįçı¾": 6471,
      "æ«": 6472,
      "å¤ļæĳ©": 6473,
      "æĭĺ": 6474,
      "æľ±": 6475,
      "ãĥĳãĤ¤ãĥŃãĥĥãĥĪ": 6476,
      "ãģĻãģĮ": 6477,
      "è¡£è£ħ": 6478,
      "è«¸åĽ½": 6479,
      "âĹĭâĹĭ": 6480,
      "æ°´éģĵ": 6481,
      "ãĥ¡ãĤ«": 6482,
      "ç²ĭ": 6483,
      "ãģ§ãģĻãģĮ": 6484,
      "ãĥ¤ãĥ«": 6485,
      "ç¤¾åĽ£": 6486,
      "éĮ¦": 6487,
      "ãĥ¯ãĤ·ãĥ³ãĥĪãĥ³": 6488,
      "ãĤ°ãĥ©ãĤ¹": 6489,
      "å¤ķæĸ¹": 6490,
      "ãĥŃãĤ±ãĥĥãĥĪ": 6491,
      "çı¾åŃĺ": 6492,
      "ãĥ¤ãĥ³ãĤ°": 6493,
      "æĤł": 6494,
      "ãģĻãģĺ": 6495,
      "ãĥŃãĤµãĥ³": 6496,
      "ãĥ¬ãĥ¼ãĥĻãĥ«": 6497,
      "çĶŁå¹´": 6498,
      "ãĥ³ãĥŀãĥ³": 6499,
      "çĶ¨éĢĶ": 6500,
      "æ°ĹåĢĻ": 6501,
      "å¿ľãģĪ": 6502,
      "å¹´éĩĳ": 6503,
      "ãĤ®ãĥ¥ãĤ¢": 6504,
      "è¦ĭãģŁ": 6505,
      "ãĤŃãĥĥãĥĪ": 6506,
      "ãģĵãĤĵãģ«ãģ¡": 6507,
      "ç«ĭãģ¡ä¸ĬãģĴ": 6508,
      "å¤§æ©ĭ": 6509,
      "è¦ĭãģŁçĽ®": 6510,
      "ãĥīãĥ¬ãĤ¹": 6511,
      "ãĤ¨ãĥ³ãĤ¸ãĥĭãĤ¢": 6512,
      "éħįå¸ĥ": 6513,
      "ãĥĽãĤ¤": 6514,
      "ãģĿãĤĮãģ«": 6515,
      "ãĥŀãĤ¤ãĤ¯ãĥŃ": 6516,
      "å±Ģéķ·": 6517,
      "æ¯İåĽŀ": 6518,
      "éħ¬": 6519,
      "éĽĢ": 6520,
      "ãĥķãĥ¼ãĥī": 6521,
      "åĲĪæµģ": 6522,
      "ãĤ¯ãĤ¿": 6523,
      "æŃ©åħµ": 6524,
      "ãĥ©ãĤ¤ãĤº": 6525,
      "åĲĮåĲį": 6526,
      "å¤§éĩİ": 6527,
      "ãĤīãģĪ": 6528,
      "ãĥĪãĥ¼ãĥĬãĥ¡ãĥ³ãĥĪ": 6529,
      "æĮŁ": 6530,
      "åı£åº§": 6531,
      "éĽĨèĲ½": 6532,
      "ãģĤãĤīãģĭ": 6533,
      "åĲĮæľŁ": 6534,
      "ãĥķãĤ£ãĤ®ãĥ¥ãĤ¢": 6535,
      "é«ĺæĿ¾": 6536,
      "ãĥĳãĥ¼ãĥĦ": 6537,
      "ãģ¾ãģĽ": 6538,
      "å®Łè³ª": 6539,
      "æĮ¨": 6540,
      "æĭ¶": 6541,
      "çľŁãģ£": 6542,
      "ãģ¯ãģ¾": 6543,
      "æĮ¨æĭ¶": 6544,
      "ãĥļãĥ¼ãĤ¹": 6545,
      "åħ¥åł´": 6546,
      "ç¾İåŃĲ": 6547,
      "æ½Ķ": 6548,
      "çĦ¡è¦ĸ": 6549,
      "çķ¥ç§°": 6550,
      "è§£æŀĲ": 6551,
      "èŃ°éķ·": 6552,
      "åĳ¼ç§°": 6553,
      "å¿ľçĶ¨": 6554,
      "ãĤ³ãĥŀãĥ³ãĥī": 6555,
      "å¹³å®ī": 6556,
      "ãĥıãĥ©": 6557,
      "åĬī": 6558,
      "è¡Ŀçªģ": 6559,
      "è¿ĳæīĢ": 6560,
      "ãĤ¸ãĥ£ãĤº": 6561,
      "ç·łãĤģ": 6562,
      "ãĥĨãĤŃãĤ¹ãĥĪ": 6563,
      "çģ°": 6564,
      "èĻļ": 6565,
      "å±±å´İ": 6566,
      "éģºä¼ĿåŃĲ": 6567,
      "è¨´è¨Ł": 6568,
      "ãĤ¹ãĥĪãĥªãĥ¼ãĥĪ": 6569,
      "ãģĹãģı": 6570,
      "è§£ä½ĵ": 6571,
      "ãĤ°ãĥĥãĤº": 6572,
      "ãĤ¤ãĥ³ãĤ¿ãĥ¼": 6573,
      "ãĤ³ãĥ³ãĤµãĥ«": 6574,
      "ãĥŃãĤµãĥ³ãĤ¼ãĥ«ãĤ¹": 6575,
      "æľ¬ç·¨": 6576,
      "ãĤ®ãĥªãĤ·ãĥ£": 6577,
      "ãĥŀãĥ«ãĥģ": 6578,
      "åĳ¼åĲ¸": 6579,
      "ãĥĸãĥ©ãĤ¦": 6580,
      "åįĬå¹´": 6581,
      "å³ł": 6582,
      "ãģĵãģ®éłĥ": 6583,
      "èģŀãģĵãģĪ": 6584,
      "ãĤ¹ãĥĨãĥ¼ãĤ¯ãĤ¹": 6585,
      "éłĪè³Ģ": 6586,
      "å²¡çĶ°": 6587,
      "ãĥ¬ãĥĿãĥ¼ãĥĪ": 6588,
      "éł»ç¹ģ": 6589,
      "ãĤĵãģ§": 6590,
      "ä¼º": 6591,
      "è¦ģè«ĭ": 6592,
      "ãĥ³ãĥĸãĥ«": 6593,
      "åł¤": 6594,
      "ãĥŁãĥĥãĤ¯ãĤ¹": 6595,
      "ãĤ¤ãĥ³ãĥģ": 6596,
      "å·»ãģįè¾¼": 6597,
      "åģ´éĿ¢": 6598,
      "çıŃ": 6599,
      "ãĥ¼ãĥľãĥ¼ãĥ«": 6600,
      "èĴ²": 6601,
      "æİĽãģĭ": 6602,
      "å·¥å¤«": 6603,
      "åīįçĶ°": 6604,
      "æĺ¥æĹ¥": 6605,
      "å¹¼å°ĳ": 6606,
      "éĸīãģĺ": 6607,
      "ãĥŀãĥĥãĤµãĥ¼ãĤ¸": 6608,
      "ãĥ¬ãĤ¸": 6609,
      "èĬ½": 6610,
      "ç«¶äºī": 6611,
      "ãģıãģ«": 6612,
      "ä¾µæĶ»": 6613,
      "å½¹åĵ¡": 6614,
      "åıĸãĤĬä»ĺãģĳ": 6615,
      "æ¤įæ°ĳ": 6616,
      "åĭħ": 6617,
      "ä¿®äºĨ": 6618,
      "è¾ŀãĤģ": 6619,
      "åĭ²ç«ł": 6620,
      "ãĤ³ãĥ³ãĥĵãĥĭ": 6621,
      "ãĤ¿ãĥ³ãĥĳ": 6622,
      "å½ĵåºĹ": 6623,
      "æ©ĭæľ¬": 6624,
      "ãĥªãĤ¾": 6625,
      "æŃ»å¾Į": 6626,
      "é£Ľãģ°": 6627,
      "ãĥĭãĥ¥ãĥ¼ãĤ¸": 6628,
      "ãĤ³ãĥŃãĥĬ": 6629,
      "ãģ¯ãģĺãĤģãģ¨": 6630,
      "ãĥķãĤ§ãĤ¢": 6631,
      "ä¸įè©³": 6632,
      "ãģŁãģĳ": 6633,
      "æĿĳä¸Ĭ": 6634,
      "ãĥ¦ãĥ¼ãĤ¹": 6635,
      "åıįæĺł": 6636,
      "åħĪç«¯": 6637,
      "äºĭåħ¸": 6638,
      "ä¸Ĭæµ·": 6639,
      "ãĥ´ãĤ¡ãĥ«": 6640,
      "æ±ºæĦı": 6641,
      "åıĸãĤĬæī±": 6642,
      "åĪĨåŃĲ": 6643,
      "ä¸ĭè»Ĭ": 6644,
      "ãĤıãģĹ": 6645,
      "æĹ¢åŃĺ": 6646,
      "ãĥĿãĤ±ãĥĥãĥĪ": 6647,
      "ãģ©ãģĨãģĦãģĨ": 6648,
      "ãĤĤãģĹãģĭ": 6649,
      "ãģĤãĤīãģĭãģĺãĤģ": 6650,
      "ä¸ĭãĤĬ": 6651,
      "è°·å·Ŀ": 6652,
      "ãĤĪãģĨãĤĦãģı": 6653,
      "æľīéĻĲ": 6654,
      "å²©æ³¢": 6655,
      "èĦ±åĩº": 6656,
      "åıĸãĤĬæĪ»": 6657,
      "éĩ£ãĤĬ": 6658,
      "è¦ĭãģĭãģĳ": 6659,
      "ãĤīãģĭãģ®": 6660,
      "ãĥĻãĥ«ãĥªãĥ³": 6661,
      "æļĹæ®º": 6662,
      "ãĥĵãĤ¿ãĥŁãĥ³": 6663,
      "å¤«äºº": 6664,
      "ãĤªãĥ¼ãĥĬãĥ¼": 6665,
      "æĿ±è¥¿": 6666,
      "èĭ¦åĬ´": 6667,
      "ãĥĬãĥ«ãĥī": 6668,
      "çĦ¡ãģĹ": 6669,
      "åĤį": 6670,
      "é¯": 6671,
      "ãĥĶãĥ³ãĤ¯": 6672,
      "å¹¹éĥ¨": 6673,
      "éŀ": 6674,
      "æµģéĢļ": 6675,
      "ãĥĹãĥŃãĤ»ãĤ¹": 6676,
      "åł±éħ¬": 6677,
      "èħ«": 6678,
      "ãĥĻãĥĥãĥī": 6679,
      "å®īåĢį": 6680,
      "ãĥĨãĥªãĥ¼": 6681,
      "èªĺå°İ": 6682,
      "çĲĥåł´": 6683,
      "çĬł": 6684,
      "é§¿": 6685,
      "çī¹æĢ§": 6686,
      "ãĥĪãĥ©ãĥ³ãĤ¹": 6687,
      "ãĥľãĥ©ãĥ³ãĥĨãĤ£ãĤ¢": 6688,
      "ãĥ¢ãĤ¹ãĤ¯": 6689,
      "çľŁå®Ł": 6690,
      "è¿ĳçķ¿": 6691,
      "åī²åĲĪ": 6692,
      "æ··ä¹±": 6693,
      "æĲºãĤı": 6694,
      "ãĤĦãĤī": 6695,
      "ãĤ¼ãĥ³": 6696,
      "ç£Ĳ": 6697,
      "ä¸ĸãģ®": 6698,
      "çĶŁæģ¯": 6699,
      "ãģĽãģ£": 6700,
      "åī²å¼ķ": 6701,
      "ä¸ĸãģ®ä¸Ń": 6702,
      "ãģ³ãģ«": 6703,
      "çı¾éĩĳ": 6704,
      "æķĹåĮĹ": 6705,
      "èĢģäºº": 6706,
      "éłĤãģĳ": 6707,
      "æĢĿèĢĥ": 6708,
      "é£²é£Ł": 6709,
      "ãĥĲãĥ¬ãĥ¼ãĥľãĥ¼ãĥ«": 6710,
      "ãĥŀãĥ©ãĤ½ãĥ³": 6711,
      "ãĤ«ãĥĪãĥªãĥĥãĤ¯": 6712,
      "æķ£æŃ©": 6713,
      "éľĢè¦ģ": 6714,
      "ãĥĸãĥ¬ãĥ¼ãĤŃ": 6715,
      "é¦´": 6716,
      "ãĥĨãĤ¯ãĥİ": 6717,
      "ãĥľãĤ¯ãĤ·ãĥ³ãĤ°": 6718,
      "å®¹éĩı": 6719,
      "æĪ¯": 6720,
      "éħįæħ®": 6721,
      "æ¼ĶæĬĢ": 6722,
      "ãģĭãģĪ": 6723,
      "ãĤ·ãĥĬãĥªãĤª": 6724,
      "åłº": 6725,
      "éģ¸ãģ³": 6726,
      "ãĥķãĥ¬ãĥ¼ãĥł": 6727,
      "ãģĿãĤĮãģ»ãģ©": 6728,
      "ãĤŃãĥ£ãĥĥãĥģ": 6729,
      "ãĤĪãģĨãģª": 6730,
      "çħ§æĺİ": 6731,
      "ãĥķãĤ§ãĤ¹ãĥĨãĤ£": 6732,
      "ä½ľçĶ»": 6733,
      "ãģĤãĤīãģĻãģĺ": 6734,
      "ãĥĪãĥ«ãĤ³": 6735,
      "é£Ľè¡Įæ©Ł": 6736,
      "è¤Ĵ": 6737,
      "ä¹ĹãģĽ": 6738,
      "åīįæĹ¥": 6739,
      "çµĲãģ³": 6740,
      "ãĤ¤ãĤ¹ãĥ©ãĤ¨ãĥ«": 6741,
      "ãĤ¸ãĥ§ãĥ¼": 6742,
      "ä¹ħãģĹãģ¶ãĤĬ": 6743,
      "è£ħçĶ²": 6744,
      "èĪŁ": 6745,
      "æĿ¥å¹´": 6746,
      "ãĥĬãĥŁ": 6747,
      "éĸĵãģ«": 6748,
      "ãĤ¨ãĤ¸ãĥĹãĥĪ": 6749,
      "ãģĶãģı": 6750,
      "å±ĭæķ·": 6751,
      "ãģ¼ãģı": 6752,
      "å¸Ĥå½¹æīĢ": 6753,
      "ãĤ¢ãĥ³ãĤ±ãĥ¼ãĥĪ": 6754,
      "æİ¥è§¦": 6755,
      "ãĤ³ãĥ¼ãĥĩãĤ£ãĥ³ãĤ°": 6756,
      "åį¿": 6757,
      "ä¸įæŃ£": 6758,
      "çĻĸ": 6759,
      "ãĥķãĤ¡ãĥ¼ãĤ¹ãĥĪ": 6760,
      "éĽ»æºĲ": 6761,
      "ä¸Ĭä¸ĭ": 6762,
      "ä¹ĭåĬ©": 6763,
      "æĶ¹åĲį": 6764,
      "ãĤ½ãĥ«": 6765,
      "ãģ¨ãģĵãĤįãģĮ": 6766,
      "ãĥŀãĥ¼ãĤ±": 6767,
      "åĮ»èĸ¬": 6768,
      "åı¤åħ¸": 6769,
      "ãĤ¹ãĤŃãĥ³": 6770,
      "âĩĴ": 6771,
      "ãĥģãĤ§ãĥ¼ãĥ³": 6772,
      "æīĭä¼ĿãģĦ": 6773,
      "å®°": 6774,
      "ãĤ¬ãĥ¼ãĥī": 6775,
      "æ¾Ħ": 6776,
      "åĨįå»º": 6777,
      "ãĤ¦ãĤ£ãĥ«": 6778,
      "å¢ĥçķĮ": 6779,
      "èĭ¥å¹²": 6780,
      "ãĥĥãĥĳãĥ¼": 6781,
      "å¯®": 6782,
      "æķ´ãģĪ": 6783,
      "ãĥĽãĥ«ãĥ¢ãĥ³": 6784,
      "ç§»ç®¡": 6785,
      "çģ«çģ½": 6786,
      "æ¥µãĤģãģ¦": 6787,
      "ä¼ļãģĦ": 6788,
      "ãģ©ãģĵãĤį": 6789,
      "ãĤªãĥķãĤ£ãĤ·ãĥ£ãĥ«": 6790,
      "åĤĺä¸ĭ": 6791,
      "ãĥıãĥŃ": 6792,
      "ãĥľãĥ¼ãĤ¤": 6793,
      "ãĥĲãĤ¹åģľ": 6794,
      "æ£ļ": 6795,
      "è±¡å¾´": 6796,
      "ä¿®éģĵ": 6797,
      "ãĤ°ãĥŃãĥ¼ãĥĲãĥ«": 6798,
      "æºĿ": 6799,
      "ç£¯": 6800,
      "ãĤ¯ãĥ©ãĤ¦ãĥī": 6801,
      "ãĤ¸ãĤ§ãĥ«": 6802,
      "ãĥĿãĥ«ãĥĪãĤ¬ãĥ«": 6803,
      "ãĥ©ãĤ¤ãĤ»ãĥ³ãĤ¹": 6804,
      "ä½ľä¸Ń": 6805,
      "ãģĲãĤĭ": 6806,
      "æĹ¥ä¸Ń": 6807,
      "åľ¨ä½ı": 6808,
      "ãĥģãĥ¥ãĥ¼": 6809,
      "äºĪæ¸¬": 6810,
      "ä¸Ģä¸ģçĽ®": 6811,
      "æ¤ľè¨¼": 6812,
      "åıĹè¬Ľ": 6813,
      "ãĥ¬ãĥ«": 6814,
      "å¿ħéłĪ": 6815,
      "æĬķåħ¥": 6816,
      "åĽ½çİĭ": 6817,
      "éĻ¶": 6818,
      "æĵģ": 6819,
      "ãģĬãģĵãģª": 6820,
      "åıĸãĤĬçµĦãģ¿": 6821,
      "ãĤĤãģĨå°ĳãģĹ": 6822,
      "åģī": 6823,
      "ãĥ¼ãĥ¼": 6824,
      "ãĤ¸ãĥ£ãĤ±ãĥĥãĥĪ": 6825,
      "åıĹãģĳä»ĺãģĳ": 6826,
      "çĶŁãģĪ": 6827,
      "èĲ©": 6828,
      "åĲİ": 6829,
      "ãĥ©ãĥ³ãĥĪ": 6830,
      "å£ĩ": 6831,
      "èĭ±éĽĦ": 6832,
      "å¤īãĤıãĤīãģª": 6833,
      "éĩľ": 6834,
      "ãĥŁãĥĥãĥī": 6835,
      "ãĥķãĤ§ãĤ¹ãĥĨãĤ£ãĥĲãĥ«": 6836,
      "ä¸Ģå¹´": 6837,
      "ãĥĵãĥ³ãĤ°": 6838,
      "ãĤ·ãĥ§ãĥĥãĤ¯": 6839,
      "æŃ£ä½ĵ": 6840,
      "ãĥĳãĥįãĥ«": 6841,
      "çķªåľ°": 6842,
      "æª": 6843,
      "èŃ¦è¦ĸ": 6844,
      "é¤ĬæĪĲ": 6845,
      "ãĤ¹ãĥĪãĥŃ": 6846,
      "è¡¨æĥħ": 6847,
      "ãģĬè¶ĬãģĹ": 6848,
      "æĮ¯ãĤĬè¿Ķ": 6849,
      "çĶ³ãģĹè¾¼": 6850,
      "å°ıå·Ŀ": 6851,
      "çī²": 6852,
      "æ§ĭæĥ³": 6853,
      "ãĤŃãĤ¢": 6854,
      "ãĥĪãĥ©ãĥ³": 6855,
      "ç©ı": 6856,
      "ãĥ¬ãĥĩãĤ£": 6857,
      "æľĢå¤ļ": 6858,
      "é»Ħèī²": 6859,
      "ãĥıãĥ³ãĤ¬ãĥªãĥ¼": 6860,
      "ãĤ¾ãĥ¼ãĥ³": 6861,
      "ãĥĿãĤ±": 6862,
      "ãĥĶãĥ¥": 6863,
      "ç¥ŀå®®": 6864,
      "ðŁ": 6865,
      "éįĭ": 6866,
      "éĥ½éģĵåºľçľĮ": 6867,
      "åįĹè¥¿": 6868,
      "Ã¼": 6869,
      "æķ°åĢ¤": 6870,
      "åĲĪåĶ±": 6871,
      "ãģĵãĤĵãģ«ãģ¡ãģ¯": 6872,
      "ãĥĩãĤ£ãĤºãĥĭãĥ¼": 6873,
      "ãĥ¢ãĥª": 6874,
      "ç©įãģ¿": 6875,
      "çĬłçī²": 6876,
      "æĸ°æ½®": 6877,
      "èĭĹ": 6878,
      "æĻĥ": 6879,
      "ãĥŀãĥĦ": 6880,
      "ãĥ¡ãĤ¤ãĥĪ": 6881,
      "å®Łè£ħ": 6882,
      "è£ħçĿĢ": 6883,
      "èµ·çĤ¹": 6884,
      "æĬľãģį": 6885,
      "æķ¦": 6886,
      "åĽ½å¢ĥ": 6887,
      "ãģĺãĤĵ": 6888,
      "è¡Įãģĳ": 6889,
      "å½¼æ°ı": 6890,
      "ãĥ¢ãĥģãĥ¼ãĥķ": 6891,
      "ãĤ¿ãĥ¯ãĥ¼": 6892,
      "çµĲè«ĸ": 6893,
      "æĨ§": 6894,
      "éħįçµ¦": 6895,
      "ãģĹãģĭãģĹãģªãģĮãĤī": 6896,
      "ãĤĦãģ¤": 6897,
      "ãĤ«ãĥ¬ãĥ¼": 6898,
      "ãĥ©ãĥĨãĥ³": 6899,
      "ä¸Ĭåı¸": 6900,
      "åľ°å¸¯": 6901,
      "ãĤ¢ãĤ·ãĤ¹ãĤ¿ãĥ³ãĥĪ": 6902,
      "ãģ¿ãģ¤": 6903,
      "ä¿Ŀå®Ī": 6904,
      "æ±ºæ¸Ī": 6905,
      "äºĶåįģ": 6906,
      "ãĥĪãĥ¼": 6907,
      "ãĤ¢ãĥ¬ãĤ¯ãĤµ": 6908,
      "éĩĳåĪ©": 6909,
      "åħ¨ç±³": 6910,
      "ãģµãĤĭ": 6911,
      "å¸Ĥå·Ŀ": 6912,
      "âĢĲ": 6913,
      "è«¦ãĤģ": 6914,
      "ãĥĬãĥ¬ãĥ¼ãĤ·ãĥ§ãĥ³": 6915,
      "æĪĲäºº": 6916,
      "ãĤīãģļ": 6917,
      "åľ°çįĦ": 6918,
      "ãĥĢãĥĭ": 6919,
      "æĭĽå¾ħ": 6920,
      "ãĤ¤ãĤ¨": 6921,
      "é¡ŀä¼¼": 6922,
      "ãĤĮãģ°": 6923,
      "æīĢå¾Ĺ": 6924,
      "ãģ¾ãģķãģ«": 6925,
      "ä¸Ĭåł´": 6926,
      "ãĤ»ãĥĸãĥ³": 6927,
      "åħ¥éĸĢ": 6928,
      "ãĥ¼ãĥĨãĤ¤": 6929,
      "åŃ¦å¹´": 6930,
      "å¤§å®®": 6931,
      "å®ĪåĤĻ": 6932,
      "æķħéļľ": 6933,
      "èģĸæĽ¸": 6934,
      "ãĥ¡ãĥĪãĥŃ": 6935,
      "ãģ¾ãģģ": 6936,
      "ãĤ°ãĥ©ãĥł": 6937,
      "ãĤ¿ãĥĲ": 6938,
      "çªģçł´": 6939,
      "è³ĥè²¸": 6940,
      "ãĥ¦ãĥĭãĥĲãĥ¼": 6941,
      "åıĸç·łå½¹": 6942,
      "ãĥªãĥĲ": 6943,
      "çĮ¿": 6944,
      "åŃ¦åĮº": 6945,
      "æ°´åĪĨ": 6946,
      "æ§ĭãģĪ": 6947,
      "åĢĭä½ĵ": 6948,
      "çĻºçĿĢ": 6949,
      "åĢ¶": 6950,
      "åħ¨éķ·": 6951,
      "æĪ¦èī¦": 6952,
      "ãģįãĤĥ": 6953,
      "ãĥĳãĤ¹ãĥ¯ãĥ¼ãĥī": 6954,
      "çµĤçĤ¹": 6955,
      "ãģ¯ãĤĵ": 6956,
      "æľĢå¼·": 6957,
      "æīĭéĸĵ": 6958,
      "ãĥķãĤ¡ãĤ¤ãĥĬãĥ«": 6959,
      "åįĹåĮĹ": 6960,
      "ãĤ¬ãĥ¼ãĥ«ãĤº": 6961,
      "æĲ¬": 6962,
      "éļłãĤĮ": 6963,
      "ãĥŀãĥ¼ãĤ±ãĥĨãĤ£ãĥ³ãĤ°": 6964,
      "åĲįä»ĺãģĳ": 6965,
      "æ¬¡ãĢħ": 6966,
      "ãĥ¨ãĥ³": 6967,
      "ãĥ¤ãĤ¯": 6968,
      "ãĥ¼ãĥģãĤ§ãĥ³ãĤ¸": 6969,
      "ãĥ¼ãĥı": 6970,
      "åĪĩãĤĬæĽ¿ãģĪ": 6971,
      "ç¥Ģ": 6972,
      "çĭ¼": 6973,
      "ä¸īäºķ": 6974,
      "çľº": 6975,
      "çªĵåı£": 6976,
      "ãĥĴãĥŃãĤ¤ãĥ³": 6977,
      "ãģ§ãģįãĤĭãģłãģĳ": 6978,
      "ãģ©ãĤĵ": 6979,
      "åĲĪæĪ¦": 6980,
      "å³¡": 6981,
      "ãĥįãĤ·ãĤ¢": 6982,
      "ä½ľçĽ®": 6983,
      "ãĢĩ": 6984,
      "ãĥĶãĥ¼ãĤ¿ãĥ¼": 6985,
      "æ±ģ": 6986,
      "éĢģæĸĻ": 6987,
      "æµ´ãģ³": 6988,
      "æĢªæĪĳ": 6989,
      "æŃ£æľĪ": 6990,
      "åīĬæ¸Ľ": 6991,
      "ãĤªãĥ¼ãĤ¯": 6992,
      "æĸĩéĥ¨": 6993,
      "åĪĨè§£": 6994,
      "æı´åĬ©": 6995,
      "ãĤıãģĭãĤĬãĤĦãģĻ": 6996,
      "ãĤ³ãĥĦ": 6997,
      "ãĤŃãĥ¼ãĥľ": 6998,
      "ãģĺãĤī": 6999,
      "èĩ¨åºĬ": 7000,
      "ãĤ¹ãĥĿãĥ³ãĤµãĥ¼": 7001,
      "ãĥ¬ãĥ¼ãĥ«": 7002,
      "éĻĲçķĮ": 7003,
      "éłģ": 7004,
      "ãģ¤ãģ¾": 7005,
      "æĩī": 7006,
      "æĸ°ä½ľ": 7007,
      "ãĤ¹ãĤ±ãĤ¸ãĥ¥ãĥ¼ãĥ«": 7008,
      "èĥĮä¸Ń": 7009,
      "æ°´æĪ¸": 7010,
      "ãĤ¨ãĥ³ãĤ¿ãĥĨãĤ¤ãĥ³ãĥ¡ãĥ³ãĥĪ": 7011,
      "éĽ¢èĦ±": 7012,
      "åĮĹè¥¿": 7013,
      "èª¿åŃĲ": 7014,
      "å¤īåĭķ": 7015,
      "æľ¬æĭł": 7016,
      "å°ıåŃ¦é¤¨": 7017,
      "åĮºåĪĨ": 7018,
      "å¯¸": 7019,
      "è©¦ãģĹ": 7020,
      "è¿ĳéļ£": 7021,
      "çĶŁãģĭ": 7022,
      "ãĥĭãĥ³": 7023,
      "åħ¬èªį": 7024,
      "èª¿çĲĨ": 7025,
      "ãģĵãģĨãģĹãģ¦": 7026,
      "ãĥ´ãĤ£ãĥ«": 7027,
      "æĺ§": 7028,
      "åĲĮãģĺãĤĪãģĨãģª": 7029,
      "è¬Ļ": 7030,
      "ãĤŃãĥĥãĤ¯": 7031,
      "ãĥ¡ãĥĢãĥªãĤ¹ãĥĪ": 7032,
      "ãĤ¦ãĤ§ãĥ¼": 7033,
      "ãĥ¡ãĥ³ãĤ¿": 7034,
      "è³ł": 7035,
      "å¯©èŃ°": 7036,
      "åı¶": 7037,
      "å¿ħæ®º": 7038,
      "éĬĢåº§": 7039,
      "ãģĪãģį": 7040,
      "åĩ¡": 7041,
      "ãĥ«ãĥĪãĥ³": 7042,
      "æŃ´ä»»": 7043,
      "ä¸Ģæľ¬": 7044,
      "æ¼¢åŃĹ": 7045,
      "ä¸»ä½ĵ": 7046,
      "ãĥ©ãĤ¦ãĥ³ãĥī": 7047,
      "å°Ĩæ£ĭ": 7048,
      "éĿ¢æİ¥": 7049,
      "äº¤ä»£": 7050,
      "ãģıãģłãģķãģĦ": 7051,
      "é£ŁæĿĲ": 7052,
      "ãģĹãģŁãģĮ": 7053,
      "çŁ³æ²¹": 7054,
      "ä¸ĬçĶ°": 7055,
      "ãĥ³ãĤ°ãĥ«": 7056,
      "è¿ĳéīĦ": 7057,
      "åīµåĪĬ": 7058,
      "çĽ¸æ¨¡": 7059,
      "ãĥĪãĥ¬ãĥ¼ãĥī": 7060,
      "éįĽ": 7061,
      "æĨ§ãĤĮ": 7062,
      "ãĤµãĥ³ãĤ¿": 7063,
      "æįīãģĪ": 7064,
      "è¼¸åĩº": 7065,
      "åĿĤæľ¬": 7066,
      "æºľ": 7067,
      "ãĤ«ãĤ¦ãĥ³ãĤ»": 7068,
      "å¢ľ": 7069,
      "åĬªãĤģ": 7070,
      "ãĥ¥ãĥ¼ãĤº": 7071,
      "åĭĥ": 7072,
      "æīĵæĴĥ": 7073,
      "ãĥ¬ãĥ¼ãĤ¶ãĥ¼": 7074,
      "åĢĭæĢ§": 7075,
      "ãĥªãĥģãĥ£": 7076,
      "åįĶåĲĮ": 7077,
      "èĸ¦": 7078,
      "ãĤ·ãĥ³ãĤ¬": 7079,
      "ãĤ¿ãĥ³ãĥĳãĤ¯": 7080,
      "ãĤ¤ãĥģ": 7081,
      "ãĥĲãĤ¤ãĤª": 7082,
      "ãĥ«ãĤ¤ãĤ¹": 7083,
      "ãĤ¢ãĥĹãĥŃ": 7084,
      "èĪĪè¡Į": 7085,
      "æł¹æĭł": 7086,
      "è»įåĽ£": 7087,
      "ãģĿãĤĵãģªãģ«": 7088,
      "ãĤ¹ãĥĹãĥª": 7089,
      "æ§ĺå¼ı": 7090,
      "ä¸»å©¦": 7091,
      "æĪĲçĶ°": 7092,
      "ãģ§ãģįãĤĮãģ°": 7093,
      "ãĤ²ãĤ¤": 7094,
      "åī°": 7095,
      "ä¸ĢçĴ°": 7096,
      "ç·ıçĲĨ": 7097,
      "ãĥŀãĥ³ãĤ¬": 7098,
      "ãĥ¬ãĤ¹ãĥ©ãĥ¼": 7099,
      "åħĨ": 7100,
      "èĤīä½ĵ": 7101,
      "éĿŀå¸¸": 7102,
      "ãģĨãĤĮ": 7103,
      "é¤ĬåŃĲ": 7104,
      "å³¶æł¹": 7105,
      "åıįä¹±": 7106,
      "å¹£": 7107,
      "å®¤åĨħ": 7108,
      "ä½Ĩ": 7109,
      ";)": 7110,
      "éģĭåĳ½": 7111,
      "ãĤ¨ãĥ¼": 7112,
      "åįĺãģ«": 7113,
      "ãĤµãĥ¼ãĤ¯ãĥ«": 7114,
      "åĭ¤ãĤģ": 7115,
      "çĭ¬çī¹": 7116,
      "é¦´æŁĵ": 7117,
      "ãĥ¼ãĥķãĤ§": 7118,
      "ãĥĲãĤ¤ãĥĳãĤ¹": 7119,
      "éĢ£çµĲ": 7120,
      "ãĥ³ãĥĬãĥ¼": 7121,
      "ãģ¤ãģĦãģ«": 7122,
      "ãĤ¤ãĤ¯": 7123,
      "ãĥķãĥĥãĥĪãĥľãĥ¼ãĥ«": 7124,
      "è¼īãģĽ": 7125,
      "ãĤ¨ãĥ¼ãĤ¸ãĤ§": 7126,
      "èµ´": 7127,
      "ãĥĴãĥ¥": 7128,
      "ãĤ¸ãĥ©": 7129,
      "åĮĹæĿ±": 7130,
      "ãĥľãĥ¼ãĥĬãĤ¹": 7131,
      "è©©äºº": 7132,
      "ä¸Ńå·Ŀ": 7133,
      "å¿ĥåľ°": 7134,
      "å¦¨": 7135,
      "å¼ķçĶ¨": 7136,
      "å®¹çĸĳ": 7137,
      "æ¡ģ": 7138,
      "çĶ°æĿĳ": 7139,
      "ãĤ¤ãĥ«ãĥī": 7140,
      "æ¨©åĬĽ": 7141,
      "çĪĨå¼¾": 7142,
      "æ²³åĨħ": 7143,
      "éĸ¢ä¸İ": 7144,
      "å±±ä¸ĭ": 7145,
      "ãĥ«ãĥĦ": 7146,
      "æľ¬æ°Ĺ": 7147,
      "æĶ»çķ¥": 7148,
      "ãĥ¢ãĥ³ãĤ´ãĥ«": 7149,
      "ãĥīãĥªãĥ¼ãĥł": 7150,
      "ãĤ¢ãĤ¤ãĥĩãĤ¢": 7151,
      "çĬ¯äºº": 7152,
      "åĲĪãģĽ": 7153,
      "æĺİãģĭ": 7154,
      "åı¤ãģı": 7155,
      "æ±ļãĤĮ": 7156,
      "ãģ¾ãģ¤ãĤĬ": 7157,
      "éĢ±æľ«": 7158,
      "æķĹéĢĢ": 7159,
      "ãĥ¼ãĥ¬ãĥ³": 7160,
      "çĽ¾": 7161,
      "æķĻç§ĳ": 7162,
      "ãĥĲãĥĥãĤ°": 7163,
      "éģĤãģĴ": 7164,
      "ãĥĹãĥ©ãĥĥãĥĪ": 7165,
      "é«ĺé¡į": 7166,
      "ãģĵãĤĵãģªãģ«": 7167,
      "åıĸæī±": 7168,
      "ãĥĭãĤŃ": 7169,
      "ãĥ¼ãĥģãĥ£": 7170,
      "éļİæ®µ": 7171,
      "èªĵ": 7172,
      "åĮĹä¹Ŀå·ŀ": 7173,
      "éļħ": 7174,
      "æ³¥": 7175,
      "çĶ·åĦª": 7176,
      "ãĤ¢ãĥĢãĥ«ãĥĪ": 7177,
      "ãĤĨãģĪ": 7178,
      "åįłãģĦ": 7179,
      "ãĤ¨ãĥ©": 7180,
      "æĢĴãĤĬ": 7181,
      "ãĤ¨ãĥ³ãĤ¿ãĥ¼ãĥĨãĤ¤": 7182,
      "ãĥ©ãĤ¤ãĥĲãĥ«": 7183,
      "ãĥ³ãĥģãĥ³": 7184,
      "èŃ·è¡Ľ": 7185,
      "ä¸īæµ¦": 7186,
      "æ¨Ļé«ĺ": 7187,
      "å¹³éĩİ": 7188,
      "éħ¸ç´ł": 7189,
      "ä¼ļè¦ĭ": 7190,
      "ãĤ¸ãĥ¥ãĤ¢ãĥ«": 7191,
      "å¾Ĺãģª": 7192,
      "ãĤĬãģ¤": 7193,
      "èĽĩ": 7194,
      "ãģĿãģĨãģĹãģŁ": 7195,
      "å¤§å³¶": 7196,
      "å®ĩéĥ½": 7197,
      "ãĤŃãĥ£ãĥĹ": 7198,
      "è²¡åĭĻ": 7199,
      "å°ıåĢī": 7200,
      "ãĥªãĤ¾ãĥ¼ãĥĪ": 7201,
      "åĲĮåĥļ": 7202,
      "éĽ»æ±ł": 7203,
      "ãĤ³ãĥ¢": 7204,
      "åĢĴãĤĮ": 7205,
      "çĲī": 7206,
      "äººåĵ¡": 7207,
      "ãĥŀãĥĭ": 7208,
      "ä¸ĭéĥ¨": 7209,
      "çĻ»å±±": 7210,
      "æĻĤåĪ»": 7211,
      "æĸ½å·¥": 7212,
      "æīįèĥ½": 7213,
      "ä½ĵåĬĽ": 7214,
      "ãĥ¬ãĤ³ãĥ¼ãĥĩãĤ£ãĥ³ãĤ°": 7215,
      "ãĤ·ãĥ§ãĥĥãĥĪ": 7216,
      "åĮĹéĻ¸": 7217,
      "ä½µè¨Ń": 7218,
      "éģ¸å®ļ": 7219,
      "åºĥåł±": 7220,
      "ãĥĻãĥ¼ãĤ·ãĥ§ãĥ³": 7221,
      "ç¤¾åĲį": 7222,
      "åħ±ç·¨": 7223,
      "ç¾©å¡¾": 7224,
      "ä½ķãĤīãģĭãģ®": 7225,
      "ãģĨãĤĮãģĹ": 7226,
      "æķ°ãĢħ": 7227,
      "æİ¨èĸ¦": 7228,
      "ãĤ¿ãĥĥãĥģ": 7229,
      "è¿Ķä¿¡": 7230,
      "ãĥĹãĥŃãĥ¢ãĥ¼ãĤ·ãĥ§ãĥ³": 7231,
      "åĭĩæ°Ĺ": 7232,
      "ãĤµãĥ¼ãĥĲ": 7233,
      "ãĤ¢ãĥĹãĥŃãĥ¼ãĥģ": 7234,
      "ãĤ«ãĥ³ãĥĳ": 7235,
      "ä¾µåħ¥": 7236,
      "ãģĨãģ¤": 7237,
      "æł¡éķ·": 7238,
      "ãĥ¡ãĤ¿ãĥ«": 7239,
      "ãĥ¬ãĤ¢": 7240,
      "åįļå¤ļ": 7241,
      "Ð¾": 7242,
      "èĩªä¸»": 7243,
      "éĽĨèĭ±": 7244,
      "æ¥½åĽ£": 7245,
      "åı«": 7246,
      "ãĥİãĥ¼ãĤ¹": 7247,
      "ãĤ³ãĥ³ãĥĨãĤ¹ãĥĪ": 7248,
      "ãĥ¬ãĤªãĥ³": 7249,
      "ãģ¤ãĤĮ": 7250,
      "ãĥĸãĥ©ãĤ¦ãĥ³": 7251,
      "è¡Įæĸ¹": 7252,
      "ãĥĻãĥ³ãĥģãĥ£ãĥ¼": 7253,
      "èĥĥ": 7254,
      "ãĤ¯ãĥªãĤ¨ãĤ¤": 7255,
      "ãĤ°ãĥ©ãĥķ": 7256,
      "åĬ©æīĭ": 7257,
      "æµľæĿ¾": 7258,
      "çī¹è¨±": 7259,
      "ãĥ©ãĤ¸": 7260,
      "ãĤ¿ãĤ¤ãĥ¤": 7261,
      "ãĤ¹ãĥłãĥ¼ãĤº": 7262,
      "æľ«æľŁ": 7263,
      "ãĤ¿ãĤ°": 7264,
      "(^^)": 7265,
      "ãĤ»ãĥķãĥ¬": 7266,
      "ä¸ĸéĸĵ": 7267,
      "ãĤ¬ãĥ©": 7268,
      "ãĥģãĥĥãĤ¯": 7269,
      "ãĥĽãĥĥãĥĪ": 7270,
      "çĽĨ": 7271,
      "æħ¶æĩī": 7272,
      "äºĪãĤģ": 7273,
      "ä¼¯çĪµ": 7274,
      "ãĥĢãĥ¼ãĤ¯": 7275,
      "å¹³æĸ¹": 7276,
      "å®ĩéĥ½å®®": 7277,
      "è¤ĩåĲĪ": 7278,
      "å¯Ħä»ĺ": 7279,
      "ãĥ¼ãĤ¸ãĥ¼": 7280,
      "æ¸ĵ": 7281,
      "ãĤ¹ãĥ¼ãĥĳ": 7282,
      "å¤ĸãĤĮ": 7283,
      "ãĥļãĤ¢": 7284,
      "èĩªæ°ĳ": 7285,
      "è¨ĢåıĬ": 7286,
      "äºĮéĥİ": 7287,
      "åįĬãģ°": 7288,
      "åĽĽéĥİ": 7289,
      "ä¸īåįģ": 7290,
      "ãģŁãĤĭ": 7291,
      "ãĥĨãĥ¼ãĥĹ": 7292,
      "æ¬¡ãģ®": 7293,
      "ä¿ĿèŃ·èĢħ": 7294,
      "çĻºæĺİ": 7295,
      "ãĤ·ãĥ³ãĤ¬ãĥĿãĥ¼ãĥ«": 7296,
      "ãĤªãĥł": 7297,
      "éĢļè¡Į": 7298,
      "å°ıæĿ¾": 7299,
      "ç«ĭåĢĻè£ľ": 7300,
      "ãģ¦ãģĦ": 7301,
      "æħĪ": 7302,
      "ãĤŃãĥ¼ãĥľãĥ¼ãĥī": 7303,
      "æ¬¡ç¬¬ãģ«": 7304,
      "å¿ĥèĩĵ": 7305,
      "ãĥĺãĥ³ãĥªãĥ¼": 7306,
      "å®ĪèŃ·": 7307,
      "ãĥ³ãĥĩãĥ¼": 7308,
      "å®ĺåĥļ": 7309,
      "æīĭæİĽãģĳ": 7310,
      "æĸ°æĽ¸": 7311,
      "èĢĲãģĪ": 7312,
      "çŁ³äºķ": 7313,
      "ä»ĺãģįåĲĪãģĦ": 7314,
      "ãģĽãģ£ãģĭãģı": 7315,
      "åįĺèªŀ": 7316,
      "éŁ³æºĲ": 7317,
      "ãĥĻãĤ¹": 7318,
      "ãĤªãĥ¼ãĥĩãĤ£ãĤ·ãĥ§ãĥ³": 7319,
      "æİ¨æ¸¬": 7320,
      "ãĤ¸ãĤ§ãĥ¼ãĥłãĤº": 7321,
      "ãĥ³ãĥģãĤ§": 7322,
      "èĳĹèĢħ": 7323,
      "ãĥŀãĥªãĤª": 7324,
      "Â»": 7325,
      "ãĥ¼ãĥĭãĥ£": 7326,
      "ãģķãģĦãģŁ": 7327,
      "æģŃ": 7328,
      "ãĤ¬ãĥª": 7329,
      "ãĤ¢ãĥĶ": 7330,
      "æ¤ħåŃĲ": 7331,
      "ãĥ³ãĥīãĥ«": 7332,
      "ä»ķæİĽãģĳ": 7333,
      "åĲĮç´ļ": 7334,
      "ãĥ©ãĤ¦": 7335,
      "éĢıæĺİ": 7336,
      "äºīãģĦ": 7337,
      "åīįæľŁ": 7338,
      "å¸½": 7339,
      "åĪ°éģĶ": 7340,
      "é»Ħéĩĳ": 7341,
      "äºĭå®Łä¸Ĭ": 7342,
      "ãĥ³ãĥĨãĥĬãĥ³ãĤ¹": 7343,
      "åľ¨åº«": 7344,
      "ãģĶé£¯": 7345,
      "åĶĦ": 7346,
      "è¦ªåŃĲ": 7347,
      "ãģķãģĦãģŁãģ¾": 7348,
      "æī¹è©ķ": 7349,
      "ãĤ°ãĥ¬ãĥ¼ãĥī": 7350,
      "åĸľãģ³": 7351,
      "è¦³çĤ¹": 7352,
      "ãĥİãĤ¹": 7353,
      "çł´çĶ£": 7354,
      "ãĥĲãĥ¼ãĥ³": 7355,
      "æĶ»ãĤģ": 7356,
      "ãĥıãĥ¼": 7357,
      "ç§©": 7358,
      "äºĪåĳĬ": 7359,
      "çī¡": 7360,
      "åģ¶çĦ¶": 7361,
      "åĲīå·Ŀ": 7362,
      "æŃ£è¦ı": 7363,
      "å±¯": 7364,
      "éĭŃ": 7365,
      "éļĬéķ·": 7366,
      "éĿĻãģĭ": 7367,
      "éĢļåĭ¤": 7368,
      "ãĥ¼ãĥĿ": 7369,
      "ãģĬèħ¹": 7370,
      "æ¥½éĥ¨": 7371,
      "è¦³éŁ³": 7372,
      "ãĤ¿ãĥĥãĤ°": 7373,
      "ãĥīãĥ¼ãĥ«": 7374,
      "æİĪä¸İ": 7375,
      "éĸīåºĹ": 7376,
      "åĩĨ": 7377,
      "ãĤ¹ãĤ¤ãĥĥãĥģ": 7378,
      "ä¸Ńå°ı": 7379,
      "æ¬¡çĶ·": 7380,
      "ãĤĦãģ£": 7381,
      "ãĥĮãĤ¹": 7382,
      "ãĤ¯ãĤ½ãĥ³": 7383,
      "ãĤ·ãĥ§ãĤ¦": 7384,
      "ãģĵãĤĮãģłãģĳ": 7385,
      "èª²éķ·": 7386,
      "ãĤ¸ãĥ¡ãĥ³ãĥĪ": 7387,
      "ãģ²ãģ©": 7388,
      "å¹½": 7389,
      "å±¥æŃ´": 7390,
      "ç§¦": 7391,
      "ãĥĹãĥ©ãĤ¤ãĥĻãĥ¼ãĥĪ": 7392,
      "ãĥ³ãĥĸãĥ«ãĤ¯": 7393,
      "æ°Ĺãģ«åħ¥ãĤĬ": 7394,
      "ãģĬãģĹãĤĥ": 7395,
      "ãĥ¬ãĥĥãĤ¯ãĤ¹": 7396,
      "å¬¢": 7397,
      "ãģªãĤĵãģ¨ãģĭ": 7398,
      "ãĥĩãĥĲãĤ¤ãĤ¹": 7399,
      "ãĥĸãĥ¼ãĤ¹": 7400,
      "ãģĶãģĨ": 7401,
      "æķ°ãģĪ": 7402,
      "éĢļåŃ¦": 7403,
      "èĤº": 7404,
      "åĩºãģĽ": 7405,
      "å·¥ä½ľ": 7406,
      "ãĤ¢ãĥ«ãĤ³ãĥ¼ãĥ«": 7407,
      "æĸĩæĺİ": 7408,
      "ä¸¡èĢħ": 7409,
      "ãĤ³ãĥ¡ãĥĩãĤ£": 7410,
      "ãĥĥãĤ»ãĥ«": 7411,
      "ç¾İäºº": 7412,
      "ãĤ´ãĥŁ": 7413,
      "ãģĮãĤĵãģ°": 7414,
      "ãĥŃãĤ±": 7415,
      "åĪĥ": 7416,
      "ãĤ¢ãĤµ": 7417,
      "ãĥĵãĥ¼ãĥģ": 7418,
      "ãĤ»ãĥª": 7419,
      "ãĥ¡ãĤ¿": 7420,
      "ãĥ¢ãĤ¹ãĤ¯ãĥ¯": 7421,
      "å¯¾æ±º": 7422,
      "ãĥªãĥģãĥ£ãĥ¼ãĥī": 7423,
      "ãĤ¢ãĥĪãĥ©": 7424,
      "ç·ıä¼ļ": 7425,
      "ãģĿãĤĮãģªãĤĬ": 7426,
      "ãĥĥãĥĨãĤ£": 7427,
      "éĺªæĢ¥": 7428,
      "ãĥĭãĥ£": 7429,
      "ãģĹãģŁãĤī": 7430,
      "ä¸ĢéĿ¢": 7431,
      "ãģĬæ°Ĺãģ«åħ¥ãĤĬ": 7432,
      "ä»£æĽ¿": 7433,
      "ãĥĽãĥ¼ãĥ«ãĥĩãĤ£ãĥ³ãĤ°": 7434,
      "æĵįç¸¦": 7435,
      "ãĥ¡ãĥ³ãĥĨãĥĬãĥ³ãĤ¹": 7436,
      "åĪĿéłŃ": 7437,
      "æ¬º": 7438,
      "è£ľçµ¦": 7439,
      "å¤ªåŃĲ": 7440,
      "æĪ¦æŃ»": 7441,
      "ä¼Ĳ": 7442,
      "ãĥŀãĥ¬ãĥ¼": 7443,
      "é¼ĵ": 7444,
      "èĲ½èªŀ": 7445,
      "çĪª": 7446,
      "ç¾Ĭ": 7447,
      "ãĥŀãĤ¹ãĤ¯": 7448,
      "ãĤªãĥ¬ãĥ³ãĤ¸": 7449,
      "åħ¨éĿ¢": 7450,
      "ãĥŀãĥįãĤ¸ãĥ¡ãĥ³ãĥĪ": 7451,
      "åĢ¶æ¥½éĥ¨": 7452,
      "èº«ãģ«ãģ¤ãģĳ": 7453,
      "ãĥ¡ãĥ¢ãĥª": 7454,
      "å°¼": 7455,
      "åĳĬçĻ½": 7456,
      "ãĥĥãģ¨": 7457,
      "æĶ¾ç½®": 7458,
      "ãĤŃãĥ£ãĥĥãĤ·ãĥ³ãĤ°": 7459,
      "ãĥģãĥ©": 7460,
      "å°½ãģı": 7461,
      "çķĻãģ¾": 7462,
      "ãĥªãĥķãĤ©ãĥ¼ãĥł": 7463,
      "ãĥŀãĤ¤ãĤ¯": 7464,
      "ä¸ĬåĽŀ": 7465,
      "ãĤŃãĥł": 7466,
      "æŃ£ç¾©": 7467,
      "æ¸Īãģ¿": 7468,
      "ãĤ³ãĤ¦": 7469,
      "ãĤ·ãĥªãĤ¢": 7470,
      "ç¦ħ": 7471,
      "ãĤ¤ãĤ¹ãĥ©ãĥł": 7472,
      "æĭ¾": 7473,
      "çľºãĤģ": 7474,
      "ãĥķãĤ§ãĤ¤ãĤ¹": 7475,
      "å²¡å´İ": 7476,
      "è¿ĳèĹ¤": 7477,
      "èªįåı¯": 7478,
      "ãĤĨãģ¿": 7479,
      "ãĥīãĥ¡ãĤ¤ãĥ³": 7480,
      "ãģļãģĭãģĹ": 7481,
      "éĸĭæĶ¾": 7482,
      "èµ·æºĲ": 7483,
      "æīĭãģĮãģĳ": 7484,
      "ãĥ¼ãĥªãĥ³": 7485,
      "éĿĸ": 7486,
      "ãĤ®ãĥªãĤ·ãĤ¢": 7487,
      "æİĮ": 7488,
      "ãĤ³ãĥłãĥ¼ãĥį": 7489,
      "å®Łæ³ģ": 7490,
      "çµĤçĽ¤": 7491,
      "åĿª": 7492,
      "å®ļçĿĢ": 7493,
      "èĨĿ": 7494,
      "ãĥıãĥŀ": 7495,
      "ä¸Ģå®¶": 7496,
      "ãĥķãĤ¡ãĥ³ãĤ¿ãĤ¸ãĥ¼": 7497,
      "éµ": 7498,
      "ãĤ¢ãĥªãĤ¹": 7499,
      "ãĥ¡ãĥ³ãĤ¿ãĥªãĥ¼": 7500,
      "ä¸Ģåĵ¡": 7501,
      "ãĤ¨ãĤ³": 7502,
      "ãĤ«ãĥ¼ãĥĪ": 7503,
      "ãĤ·ãĥª": 7504,
      "å®ļåĵ¡": 7505,
      "åĨĴéłŃ": 7506,
      "å¥´éļ·": 7507,
      "ç´Ĺ": 7508,
      "é«ĺåİŁ": 7509,
      "ãĥĢãĤ¤ãĥ¤ãĥ¢ãĥ³ãĥī": 7510,
      "ãĤıãģĮ": 7511,
      "ä»ķãģĪ": 7512,
      "å®´": 7513,
      "çŁŃç¸®": 7514,
      "ãĤªãĤ±": 7515,
      "ãĥĽãĥ³": 7516,
      "è¥¿åģ´": 7517,
      "ãĥĻãĥ«ãĤ®ãĥ¼": 7518,
      "çµµæľ¬": 7519,
      "æ£®æŀĹ": 7520,
      "ãĤ¢ãĥ¬ãĥ«": 7521,
      "è±ĬçĶ°": 7522,
      "æĺĩéĢ²": 7523,
      "æŃ£å¸¸": 7524,
      "ç²ĺ": 7525,
      "èĴ¸æ°Ĺ": 7526,
      "ãĤ¢ãĥĨ": 7527,
      "ãĤ¨ãĥ³ãĥĪãĥªãĥ¼": 7528,
      "å¤§éļĬ": 7529,
      "ç¹ĶçĶ°": 7530,
      "å¯Ĥ": 7531,
      "âī": 7532,
      "ãĥ³ãĥĵãĤ¢": 7533,
      "Ð°": 7534,
      "å¤©çİĭ": 7535,
      "ä¸ŃæĹ¥": 7536,
      "çĹ©": 7537,
      "åĨįä¼ļ": 7538,
      "ä½ĵåĨħ": 7539,
      "å®ŁçĶ¨": 7540,
      "æŃ¦å°Ĩ": 7541,
      "åĩ½é¤¨": 7542,
      "ãģķãģĹ": 7543,
      "å£²è²·": 7544,
      "çĦ¡äºº": 7545,
      "å¦ĸæĢª": 7546,
      "åįĹæĿ±": 7547,
      "å°ĭå¸¸": 7548,
      "ãĤ¢ãĥĳãĥ¼ãĥĪ": 7549,
      "ç¸Ľ": 7550,
      "ãĥŀãĥĭãĥ¥": 7551,
      "éĽ»æ³¢": 7552,
      "èģ·äºº": 7553,
      "ãĥ¡ãĤ¤ãĥī": 7554,
      "ãĥ³ãĥŀãĥ¼ãĤ¯": 7555,
      "ãĥīãĥ©ãĥķãĥĪ": 7556,
      "åºĥåŁŁ": 7557,
      "ãģļãģ¿": 7558,
      "ä¸Ģæ°Ĺ": 7559,
      "ç¬¬ä¸ī": 7560,
      "æł¹æľ¬": 7561,
      "åı³è¡ĽéĸĢ": 7562,
      "éĢ¢": 7563,
      "ãģ¤ãģ¶": 7564,
      "âĪĢ": 7565,
      "ãĥĿãĤ±ãĥ¢ãĥ³": 7566,
      "å¼·ãģķ": 7567,
      "ãĥĹãĥŃãĤ°ãĥ©ãĥŁãĥ³ãĤ°": 7568,
      "ãģ¹ãģı": 7569,
      "ãĥŀãĥįãĥ¼ãĤ¸ãĥ£ãĥ¼": 7570,
      "ãĥĻãĥ¼": 7571,
      "éĸĭåºĹ": 7572,
      "ãģĤãģķ": 7573,
      "ãĥĶãĤ¯": 7574,
      "ãĤ¯ãĥĪãĥ«": 7575,
      "ä¸Ńèº«": 7576,
      "ãĥ¢ãĥ«": 7577,
      "åħįçĸ«": 7578,
      "ãĤ·ãĤ¹ãĤ³": 7579,
      "ãĤ¤ãĥª": 7580,
      "åŁºçĽ¤": 7581,
      "çĻĮ": 7582,
      "ç¤¾åĨħ": 7583,
      "ãģ¾ãĤĭãģ§": 7584,
      "åĳĬãģĴ": 7585,
      "åħ¥ä¼ļ": 7586,
      "èĬ±çģ«": 7587,
      "å¤§ä½Ĳ": 7588,
      "åĳ³æĸ¹": 7589,
      "ãĤµãĥ¼ãĥģ": 7590,
      "ãĥ¬ãĥł": 7591,
      "ãģĤãģĮ": 7592,
      "ä¾ĭå¤ĸ": 7593,
      "ãĤ·ãĤ«ãĤ´": 7594,
      "çĶ²åŃĲ": 7595,
      "ãĤŃãĥĥãĥģ": 7596,
      "ãĥĸãĥ©ãĤ¦ãĤ¶": 7597,
      "ãģ¨ãĤĤãģ«": 7598,
      "ãĥ¦ãĥ¼ãĥŃ": 7599,
      "æıļãģĴ": 7600,
      "ä¸ĬéĻ¸": 7601,
      "æµ·æ´ĭ": 7602,
      "ç¨Ģ": 7603,
      "ãĤ¹ãĤ³ãĥĥãĥĪãĥ©ãĥ³ãĥī": 7604,
      "éĽ»åĭķ": 7605,
      "ãĤ«ãĥ¬ãĥĥãĤ¸": 7606,
      "éĿĴæľ¨": 7607,
      "ãĤ§ãĥ«": 7608,
      "ä½ıå±ħ": 7609,
      "ç´łäºº": 7610,
      "æļ«": 7611,
      "èĹ¤çĶ°": 7612,
      "ãĤ¹ãĥĨãĥ«": 7613,
      "æŀ¶ç©º": 7614,
      "çľĭæĿ¿": 7615,
      "ãģ¨ãĤĵ": 7616,
      "æ³ķä»¤": 7617,
      "æīĭéłĨ": 7618,
      "æľĢä¸Ń": 7619,
      "ãģĮãģ£ãģĵãģĨ": 7620,
      "çľŁåī£": 7621,
      "ãĥĽãĥ¼ãĥ«ãĥĩãĤ£ãĥ³ãĤ°ãĤ¹": 7622,
      "ãĥŃãĤ¸ãĥ¼": 7623,
      "ãģªãĤĭãģ¹ãģı": 7624,
      "ãĤ¨ãĥ³ãĤ¹": 7625,
      "åĩºåºĹ": 7626,
      "ãĥĲãĥĬ": 7627,
      "ãĤ·ãĥŁ": 7628,
      "åĽ½æľī": 7629,
      "çĸİ": 7630,
      "ãĤ¢ãĥªãĥ¼": 7631,
      "ç°¡æĺĵ": 7632,
      "ãĤ·ãĥįãĥŀ": 7633,
      "ãĤ¬ãĥ¼ãĥĩãĥ³": 7634,
      "æĪĳæħ¢": 7635,
      "ãģķãģį": 7636,
      "äº¤éļĽ": 7637,
      "æĪĲãĤĬ": 7638,
      "éĸ¢ç¯Ģ": 7639,
      "ç¥ĿæĹ¥": 7640,
      "ãĥ¼ãĥĶ": 7641,
      "èª¬å¾Ĺ": 7642,
      "ãĥĬãĤ·ãĥ§ãĥĬãĥ«": 7643,
      "ãĤ¦ãĥ«ãĤ¹": 7644,
      "ãģŁãģ¾ãģ«": 7645,
      "çĽĽãĤĵ": 7646,
      "ä»£è¡Į": 7647,
      "ãģªãģľãģĭ": 7648,
      "åľ°å½¢": 7649,
      "æĨ©": 7650,
      "åºģèĪİ": 7651,
      "è©Ĳ": 7652,
      "äºĪåł±": 7653,
      "ä¸Ģæĭ¬": 7654,
      "ãĤ¢ãĥĸ": 7655,
      "åĲīéĩİ": 7656,
      "ãĥīãĤŃãĥ¥ãĥ¡ãĥ³ãĤ¿ãĥªãĥ¼": 7657,
      "ãĤ¤ãĥ³ãĤ¿ãĥ¼ãĥĬ": 7658,
      "é«ĺå±±": 7659,
      "çĤī": 7660,
      "çĶ³åĳĬ": 7661,
      "çĶŁçĲĨ": 7662,
      "ãģ£ãģŁ": 7663,
      "ãĥ¬ãĤ·ãĥĶ": 7664,
      "æĭį": 7665,
      "ãĤ»ãĥĥãĤ·ãĥ§ãĥ³": 7666,
      "æıĥãģĪ": 7667,
      "ãĤĤãģªãģı": 7668,
      "ä¸Ĭéĥ¨": 7669,
      "æĽĸ": 7670,
      "ãĥ©ãĤ¤ãĥī": 7671,
      "çĻºæİĺ": 7672,
      "ãĥĸãĥ¼ãĥł": 7673,
      "çµĮè·¯": 7674,
      "ãģ²ãĤī": 7675,
      "çĻºåĭķ": 7676,
      "åıĶ": 7677,
      "æ®»": 7678,
      "å¤ĸåĭĻ": 7679,
      "âĹĨ": 7680,
      "ç¯¤": 7681,
      "è¿ħ": 7682,
      "ãĤ¡ãĥ¼": 7683,
      "å¤ľéĸĵ": 7684,
      "ç¬¹": 7685,
      "è£¸": 7686,
      "è³łåĦŁ": 7687,
      "è¦ļãĤģ": 7688,
      "ãĥĩãĥ³ãĥŀãĥ¼ãĤ¯": 7689,
      "è¬Ľç¾©": 7690,
      "ãģ©ãĤĮãģłãģĳ": 7691,
      "æĢªçį£": 7692,
      "æŃĮåĶ±": 7693,
      "ãĥĹãĤ¿ãĥ¼": 7694,
      "ãĥĩãĤ¹ãĤ¯": 7695,
      "ãĤĦãģ£ãģ¨": 7696,
      "ãĤ¤ãĥ³ãĤ¿ãĥ¼ãĥĬãĤ·ãĥ§ãĥĬãĥ«": 7697,
      "è¹´": 7698,
      "æĽĸæĺ§": 7699,
      "æĻ´ãĤĮ": 7700,
      "ä½µãģĽ": 7701,
      "ä½ıãģ¾ãģĦ": 7702,
      "ãĤ¦ãĤ©ãĥ¼ãĤ¿ãĥ¼": 7703,
      "æ°¸éģł": 7704,
      "ãĥŀãĥ¼ãĤ±ãĥĥãĥĪ": 7705,
      "ãĥĲãĥ¼ãĤ°": 7706,
      "å±ŀæĢ§": 7707,
      "åŃĺçŁ¥": 7708,
      "åĽºæľī": 7709,
      "æķĳæĢ¥": 7710,
      "æĶ¾é¡Į": 7711,
      "æ®ĭå¿µãģªãģĮãĤī": 7712,
      "è»½æ¸Ľ": 7713,
      "éģłå¾ģ": 7714,
      "éŁ³éŁ¿": 7715,
      "ä¿Ŀå®ī": 7716,
      "ãģķãģĻãģĮ": 7717,
      "æ²¿å²¸": 7718,
      "éĤªéŃĶ": 7719,
      "æľīåĬĽ": 7720,
      "è¦ªåıĭ": 7721,
      "èģ¡": 7722,
      "ãĤŃãĥİ": 7723,
      "éłŃéĥ¨": 7724,
      "ãģĿãĤĮãģ§": 7725,
      "åĽ½åĭ¢": 7726,
      "åĬĩä¸Ń": 7727,
      "æŃ£è§£": 7728,
      "éģĭè¼¸": 7729,
      "èĵĭ": 7730,
      "ãĥŁãĤ¢": 7731,
      "å©¦äºº": 7732,
      "ãĤ¹ãĤ¿ãĥ³ãĥī": 7733,
      "è¦ĭè§£": 7734,
      "å¤ĸè¦ĭ": 7735,
      "ãĥīãĤ¯ãĤ¿ãĥ¼": 7736,
      "ãĤ¦ãĤ¤": 7737,
      "æīĩ": 7738,
      "ä¸Ģè²«": 7739,
      "ãĥİãĤ¦": 7740,
      "ãĤŃãĥ«": 7741,
      "ãĤ»ãĤ¯": 7742,
      "æĲŃä¹Ĺ": 7743,
      "ãĤ»ãĥŃ": 7744,
      "åĸª": 7745,
      "èĬ¦": 7746,
      "èĪŀãģĦ": 7747,
      "åĸļ": 7748,
      "ä½ķåº¦ãģĭ": 7749,
      "è·³": 7750,
      "è¬Ľç¿Ĵ": 7751,
      "åºŃåľĴ": 7752,
      "æĻĤãĢħ": 7753,
      "ä¿¡éķ·": 7754,
      "ãĥŃãĤ¤ãĥ¤ãĥ«": 7755,
      "èªłãģ«": 7756,
      "æĸİèĹ¤": 7757,
      "ãĤµãĥ³ãĥī": 7758,
      "é£½": 7759,
      "ãĤ¹ãĥĪãĥ¼ãĥ³": 7760,
      "è·¡åľ°": 7761,
      "ãĥīãĤ¦": 7762,
      "æĽ°": 7763,
      "ãģĵãģłãĤı": 7764,
      "ãĥĶãĥĥãĤ¯": 7765,
      "ãĥįãĤ³": 7766,
      "ãĥŀãĥªãĥ¼": 7767,
      "æ°´çĶ£": 7768,
      "èĭ¥æīĭ": 7769,
      "ãĥģãĥ«": 7770,
      "ãģĿãģ¡ãĤī": 7771,
      "å¾ĮæĹ¥": 7772,
      "ãĤ¿ãĥ³ãĤ¯": 7773,
      "ãĤªãĥ¼ãĤ±": 7774,
      "åħ¥å±ħ": 7775,
      "å¤§å°Ĩ": 7776,
      "ãģĦãģ¤ãģĭ": 7777,
      "çĲīçĲĥ": 7778,
      "ãĤµãĥ³ãĥķ": 7779,
      "æ¥Ńç¸¾": 7780,
      "æķħéĥ·": 7781,
      "åŃĲåŃ«": 7782,
      "æĿ¡ä¾ĭ": 7783,
      "æ½°": 7784,
      "åīµä½ľ": 7785,
      "æľ¬çī©": 7786,
      "åº§å¸Ń": 7787,
      "åıĮæĸ¹": 7788,
      "è£ħé£¾": 7789,
      "ä¼İ": 7790,
      "ãĥĩãĤ£ãĤ¹ãĤ³": 7791,
      "æĺĨ": 7792,
      "ãĤ¨ãĥ¬ãĤ¯ãĥĪ": 7793,
      "éŃĶå¥³": 7794,
      "æĿ¥æĹ¥": 7795,
      "èº«è¿ĳ": 7796,
      "ãĤ¤ãĥ¤": 7797,
      "ãĥĳãĥ¼ãĥ«": 7798,
      "ãĤ¢ãĥ«ãĥķãĤ¡": 7799,
      "èĦ±éĢĢ": 7800,
      "ãĤ¦ãĤ£ãĥ¼ãĥ³": 7801,
      "åº¶": 7802,
      "ä½ķæķħ": 7803,
      "ãĤ½ãĥķãĥĪãĥĲãĥ³ãĤ¯": 7804,
      "è«¾": 7805,
      "ãĥ¬ãĥ³ãĤ¸ãĥ£ãĥ¼": 7806,
      "ãĤ¢ãĥŀãĥģãĥ¥ãĤ¢": 7807,
      "ãĤŃãĥ£ãĥĥãĤ·ãĥ¥": 7808,
      "çĮª": 7809,
      "çĻºçĹĩ": 7810,
      "æĮ¯ãĤĭ": 7811,
      "ãĥģãĥ£ãĥ¼ãĥ«ãĤº": 7812,
      "åħ¨åŁŁ": 7813,
      "åĪĪ": 7814,
      "æĹ©æľŁ": 7815,
      "ãĥİãĥ¼ãĥ«": 7816,
      "éĺ²çģ½": 7817,
      "ãĤĤãģĨä¸Ģåº¦": 7818,
      "èĹĿ": 7819,
      "ãĤ¤ãĥ³ãĥīãĥįãĤ·ãĤ¢": 7820,
      "ãĥ¨ãĥ¼": 7821,
      "èŃ¦è¦ĸåºģ": 7822,
      "ãĥĬãĥģ": 7823,
      "åįģäºĮ": 7824,
      "è¡¨ç´Ļ": 7825,
      "ç½®ãģįæıĽãģĪ": 7826,
      "æľĢå°ı": 7827,
      "ãĤ¨ãĥ©ãĥ¼": 7828,
      "æĪ¦åīį": 7829,
      "ç±ł": 7830,
      "åĸ§": 7831,
      "æķ°å¤ļãģı": 7832,
      "ãģĪãĤĵ": 7833,
      "ãĤ¢ãĥ¼ãĤ«ãĤ¤": 7834,
      "åıĤè¬Ģ": 7835,
      "çĺ": 7836,
      "ãĤ¤ãĥ³ãĤ¿ãĥ¼ãĥģãĤ§ãĥ³ãĤ¸": 7837,
      "ãĤ¢ãĥ«ãĤ¼": 7838,
      "ãģĽãĤī": 7839,
      "ãģ¯ãģĦ": 7840,
      "ãģĵãģ©ãĤĤ": 7841,
      "çºĤ": 7842,
      "è¨¼è¨Ģ": 7843,
      "æģ¥ãģļãģĭãģĹ": 7844,
      "å¸Ĥåĸ¶": 7845,
      "éĺ¿éĥ¨": 7846,
      "æĿ¥åł´": 7847,
      "ãĤ¢ãĥ¬ãĥ«ãĤ®ãĥ¼": 7848,
      "æŃ»åĪĳ": 7849,
      "ç§ĺæĽ¸": 7850,
      "é«ĺéĩİ": 7851,
      "ãģĬãģĦ": 7852,
      "å¤§åĲį": 7853,
      "çĿĢçī©": 7854,
      "âĻ¡": 7855,
      "ãĤ¨ãĤ¯ãĤ¹": 7856,
      "åİŁçĻº": 7857,
      "çĶ²åŃĲåľĴ": 7858,
      "å¸°éĤĦ": 7859,
      "æĩ²": 7860,
      "ä»£éĩĳ": 7861,
      "çĹ´": 7862,
      "ãĤ¹ãĥĪãĥ¬": 7863,
      "ãĤ¢ãĥ³ãĥĢãĥ¼": 7864,
      "æŃ£éĿ¢": 7865,
      "ä½ĵç³»": 7866,
      "è¨ĺåı·": 7867,
      "å¤§è°·": 7868,
      "ãĤªãĥ¼ãĥĢãĥ¼": 7869,
      "ä¸ĢéĢ£": 7870,
      "ç§°åı·": 7871,
      "åįĥä»£çĶ°": 7872,
      "ä¸ĢæĹ¦": 7873,
      "å¤§å¡ļ": 7874,
      "åħ¬åĭĻ": 7875,
      "å£®": 7876,
      "é§ħèĪİ": 7877,
      "ãĥĬãĥĥãĥĹ": 7878,
      "æľ¬åºĹ": 7879,
      "å¿«éĢŁ": 7880,
      "èĪĮ": 7881,
      "çģ«å±±": 7882,
      "åħ¬çĽĬ": 7883,
      "å¤ıä¼ĳãģ¿": 7884,
      "äººæ¨©": 7885,
      "åı²è·¡": 7886,
      "éĩİæĿĳ": 7887,
      "å¾ĮèĹ¤": 7888,
      "åĽ½éĢ£": 7889,
      "ä»ĬéĢ±": 7890,
      "Î±": 7891,
      "ãĥŀãĤµ": 7892,
      "ãĥķãĤ©ãĥĪ": 7893,
      "ãĤ«ãĥĨãĤ´ãĥªãĥ¼": 7894,
      "æ·±ãĤģ": 7895,
      "ãģĹãĤħ": 7896,
      "ãĥİãĤ¤": 7897,
      "åĩºè³ĩ": 7898,
      "ãĤ«ãĥ©ãĤªãĤ±": 7899,
      "æ¸¡ãģĹ": 7900,
      "èĸ«": 7901,
      "ç´Ľäºī": 7902,
      "ãĥĭãĥĥãĤ¯ãĤ¹": 7903,
      "ä¿®è¡Į": 7904,
      "ãĤ¯ãĥ©ãĤ¤ãĤ¢ãĥ³ãĥĪ": 7905,
      "ç¹Ĭç¶Ń": 7906,
      "ãĥįãĤª": 7907,
      "ãĥĻãĥªãĥ¼": 7908,
      "ãĥĸãĥ«ãĥ¼ãĤ¹": 7909,
      "ãĥ¢ãĤ¢": 7910,
      "æŃĮèĪŀ": 7911,
      "ãĤ¤ãĥ©ãĥ³": 7912,
      "ãĥĹãĥ¬ãĥŁãĤ¢": 7913,
      "ä¸»åĬĽ": 7914,
      "å½«åĪ»": 7915,
      "åİŁçĶ»": 7916,
      "æĿ¾å¹³": 7917,
      "ãĥĲãĥĥãĥĨãĥªãĥ¼": 7918,
      "å¼ģå½ĵ": 7919,
      "ãĤ«ãĥŁ": 7920,
      "ãĥ¢ãĥ¼": 7921,
      "æĹ¥çĶ£": 7922,
      "ãĤ·ãĥ³ãĤ¬ãĥ¼": 7923,
      "æĽ°ãģı": 7924,
      "ãĥĹãĥ©ãĤ¶": 7925,
      "ãģıãģ¾": 7926,
      "æĪ¦ç·ļ": 7927,
      "å¼·èª¿": 7928,
      "ãģ¨ãģ©ãģ¾": 7929,
      "æ¶ĪåĮĸ": 7930,
      "ãĥŁãĥĥãĤ¯": 7931,
      "è¡ĮãģĪ": 7932,
      "ãĤ¹ãĤ³ãĤ¢": 7933,
      "ãĥģãĤ§ãĤ³": 7934,
      "ç«ĭåľ°": 7935,
      "å¾ĮæĤĶ": 7936,
      "æ¨©éĻĲ": 7937,
      "éĲĺ": 7938,
      "å¤īå½¢": 7939,
      "ãĤ³ãĤ¯": 7940,
      "çĦ¡åĬ¹": 7941,
      "ãĥ´ãĤ¡ãĥ¼": 7942,
      "ãĤºãĥ«": 7943,
      "ãĤ¢ãĥĶãĥ¼ãĥ«": 7944,
      "ä½ķãģ¨ãģĭ": 7945,
      "æŃĵè¿İ": 7946,
      "é¢¨ä¿Ĺ": 7947,
      "éķ·è°·å·Ŀ": 7948,
      "ç¶ļç·¨": 7949,
      "æŃ»èĢħ": 7950,
      "ä¸īè§Ĵ": 7951,
      "ä¸Ĭç´ļ": 7952,
      "ç¶¿": 7953,
      "å°ĳæķ°": 7954,
      "è¿½æĶ¾": 7955,
      "ä½ķãģ§ãĤĤ": 7956,
      "éĿ¢çĽ®": 7957,
      "ç¦ıå±±": 7958,
      "çĶ²æĸĲ": 7959,
      "ãĤ¹ãĥªãĥ¼": 7960,
      "ä¼ļæ´¥": 7961,
      "ãĥĥãĤŃãĥ³ãĤ°": 7962,
      "å¤©æīį": 7963,
      "ãĥľãĥ¼ãĥĪ": 7964,
      "æĬĹèŃ°": 7965,
      "ãĤ·ãĥī": 7966,
      "è«ĸçĲĨ": 7967,
      "åĩºåĵģ": 7968,
      "ãģ¯ãĤĭãģĭ": 7969,
      "åĪ¥åĲį": 7970,
      "æİ¨å¥¨": 7971,
      "ãĥĸãĥ¬ãĥĥãĥĪ": 7972,
      "ãĤŃãĥª": 7973,
      "ãģĤãģĤ": 7974,
      "å¿ĥãģĮãģĳ": 7975,
      "å¥½è©ķ": 7976,
      "ä¸ĢéĢ£ãģ®": 7977,
      "å¤īéģ·": 7978,
      "éļĻ": 7979,
      "æ¿¯": 7980,
      "èĹ¤äºķ": 7981,
      "æ´»çĻº": 7982,
      "ãĥīãĥ«ãĥķ": 7983,
      "èª¿éģĶ": 7984,
      "ä¿®å¾©": 7985,
      "çĽ´ç·ļ": 7986,
      "æİ¥è¿ĳ": 7987,
      "ä¼Ŀæī¿": 7988,
      "ãĥŁãĤ¹ãĥĨãĥªãĥ¼": 7989,
      "åĩºèµ°": 7990,
      "å¾Įæĸ¹": 7991,
      "ãĤµãĤ¦": 7992,
      "éĸĭé¤¨": 7993,
      "çĦ¡ãģıãģª": 7994,
      "çı¾è¡Į": 7995,
      "å£«å®ĺ": 7996,
      "éĩįè¤ĩ": 7997,
      "æ·µ": 7998,
      "åľ¨åŃ¦": 7999,
      "ãĤ·ãĤ¨": 8000,
      "æ³Į": 8001,
      "ãĤģãģ§": 8002,
      "è³ľ": 8003,
      "ãģĺãĤħ": 8004,
      "ç½²åĲį": 8005,
      "ãĤŃãĥĥãĥģãĥ³": 8006,
      "æĹ¥ç«ĭ": 8007,
      "ãĤ¹ãĤ¿ãĥ«": 8008,
      "ãĥŃãĤ¤ãĥī": 8009,
      "ä½ĵæĵį": 8010,
      "åįĹæµ·": 8011,
      "ãĤ¢ãĥ¼ãĤ«ãĤ¤ãĥĸ": 8012,
      "ãĤ¢ãĥ«ãĤ¼ãĥ³ãĥģãĥ³": 8013,
      "åĶĨ": 8014,
      "é£¼ãģĦ": 8015,
      "æ©ĺ": 8016,
      "ãĤĨãĤĬ": 8017,
      "ãĤ¸ãĥ£ãĥ¼ãĥĬãĥªãĤ¹ãĥĪ": 8018,
      "ãĤ³ãĥ³ãĤ¯ãĥ¼ãĥ«": 8019,
      "ãĥĩãĥ©": 8020,
      "ãĥķãĤ£ãĥªãĥĥãĥĹ": 8021,
      "èĸ¬åī¤": 8022,
      "ãĤ½ãĥĭãĥĥãĤ¯": 8023,
      "èªŀãĤĬ": 8024,
      "æ´ª": 8025,
      "æīĵçİĩ": 8026,
      "èľĤ": 8027,
      "æļĹåı·": 8028,
      "ãģĹãģŁãģĮãģ£ãģ¦": 8029,
      "ãĥ¢ãĥ³ãĥĨ": 8030,
      "å°ıå±±": 8031,
      "åĳĪ": 8032,
      "æ´Ĺæ¿¯": 8033,
      "çĽ£æŁ»": 8034,
      "ä¸įå®ļæľŁ": 8035,
      "ãĥĭãĥ¥ãĥ¼ãĤ¸ãĥ¼ãĥ©ãĥ³ãĥī": 8036,
      "ãĤ¯ãĥªãĥ¼ãĥĪ": 8037,
      "æģµãģ¾ãĤĮ": 8038,
      "éĢĥãĤĮ": 8039,
      "åıİç´į": 8040,
      "æĿı": 8041,
      "ãĥĩãĥ¡ãĥªãĥĥãĥĪ": 8042,
      "æĿ±æĢ¥": 8043,
      "èĲĮ": 8044,
      "é³³": 8045,
      "ãģ¯ãĤī": 8046,
      "ç¥ŀçĶ°": 8047,
      "ãĤªãĥ¼ãĤ±ãĤ¹ãĥĪãĥ©": 8048,
      "ãĥĭãĤ³ãĥĭãĤ³": 8049,
      "å¥ĩè·¡": 8050,
      "æĿ¾çĶ°": 8051,
      "ãĤ¹ãĥĪãĥ©ãĤ¤": 8052,
      "ä¿®å£«": 8053,
      "æīĢæĮģ": 8054,
      "æĥ¨": 8055,
      "ãģ³ãģ£ãģıãĤĬ": 8056,
      "åĪĨå²Ĳ": 8057,
      "ç¥ĿãģĦ": 8058,
      "ç§»æ¤į": 8059,
      "çĪĨæĴĥ": 8060,
      "ç©ºä¸Ń": 8061,
      "åį³ä½į": 8062,
      "ãģ¤ãĤģ": 8063,
      "ä»£è¬Ŀ": 8064,
      "ãĤ¢ãĥĿ": 8065,
      "æ§»": 8066,
      "ä¼Ĭè±Ĩ": 8067,
      "ä¸ĢæŃ©": 8068,
      "ãĥ¡ãĤ¹": 8069,
      "ãģŁãģ¨ãģĪ": 8070,
      "ãĥįãĤº": 8071,
      "åĮĹæĿ¡": 8072,
      "çĽ´éĢļ": 8073,
      "é¢¨éĤª": 8074,
      "ãĥķãĤ£ãĥ³ãĥ©ãĥ³ãĥī": 8075,
      "ãĤ¦ãĥ«ãĥĪãĥ©ãĥŀãĥ³": 8076,
      "ãĤŃãĥ¥ãĥ¼": 8077,
      "å½ĵä¸»": 8078,
      "çŁ³çĶ°": 8079,
      "æĹ¥å¸Ĥ": 8080,
      "æŃĮèĪŀä¼İ": 8081,
      "ç§»æ°ĳ": 8082,
      "ä¸īå³¶": 8083,
      "æĺ¥ç§ĭ": 8084,
      "ãĥĳãĥĬ": 8085,
      "ãĥķãĤ£ãĥ¼": 8086,
      "è¸ıãģ¾ãģĪ": 8087,
      "æĢ¥éĢŁ": 8088,
      "åıĬãģ¼": 8089,
      "ãĤ®ãĤ¢": 8090,
      "ãĥĭãĤªãĥ³": 8091,
      "æ°´ç´ł": 8092,
      "å®ĭ": 8093,
      "å¸Ĩ": 8094,
      "çŀ³": 8095,
      "éģ¸èĢĥ": 8096,
      "ä¸ĢåĽŀ": 8097,
      "Ð¸": 8098,
      "å´©ãĤĮ": 8099,
      "ãĥ¢ãĥ¼ãĥĭãĥ³ãĤ°": 8100,
      "è©Ĳæ¬º": 8101,
      "èĹį": 8102,
      "ãĤ¢ãĥªãĥ¼ãĥĬ": 8103,
      "å¿ħãģļãģĹãĤĤ": 8104,
      "æİ¨çĲĨ": 8105,
      "åıĸãĤĬæī±ãģĦ": 8106,
      "ç·¨çºĤ": 8107,
      "æķ¢": 8108,
      "è¦ıç´Ħ": 8109,
      "ãĤ¹ãĥĪãĥĥãĥĹ": 8110,
      "æĸ¹è¨Ģ": 8111,
      "ãĥĥãĤ·ãĥ£ãĥ¼": 8112,
      "éĸĵéģķãģĪ": 8113,
      "¢ãĤĮ": 8114,
      "æ¹ĺ": 8115,
      "çĻºéŁ³": 8116,
      "æ¥µãĤģ": 8117,
      "ãĥĺãĥĵãĥ¼": 8118,
      "ãģĹãĤģ": 8119,
      "æĶ¹æľŃ": 8120,
      "ä½Ĳéĩİ": 8121,
      "èĻ¹": 8122,
      "ãĥĨãĤŃãĤµãĤ¹": 8123,
      "è«ı": 8124,
      "ãĥ³ãĥķãĤ©": 8125,
      "æİĴéĻ¤": 8126,
      "æħķ": 8127,
      "ãĥ³ãĥ¢": 8128,
      "ä»ķä¸ĬãģĴ": 8129,
      "æīĢèĶµ": 8130,
      "ãģ¿ãģ¡": 8131,
      "èª¿æķĻ": 8132,
      "ãĥ³ãĥŀãĥ¼": 8133,
      "ãĤīãĤĵ": 8134,
      "ç¦ıçĶ°": 8135,
      "æīĭè»½": 8136,
      "èĻľ": 8137,
      "éĩįãģª": 8138,
      "çī¹åĮĸ": 8139,
      "çħ®": 8140,
      "ãĥªãĥ¼ãĥŀãĥ³": 8141,
      "ãģ§ãĤĵ": 8142,
      "æĬ½éģ¸": 8143,
      "ä¸¦ãģ¹": 8144,
      "ä¸Ĭæ¼Ķ": 8145,
      "âĶĢ": 8146,
      "éĥŃ": 8147,
      "çľŁéĿ¢çĽ®": 8148,
      "ãģŁãģ¦": 8149,
      "åľ§åĬĽ": 8150,
      "è±ļ": 8151,
      "ãĥıãĥ³ãĤ¿ãĥ¼": 8152,
      "åĩºåı£": 8153,
      "ãĤ½ãĥĵãĤ¨ãĥĪéĢ£éĤ¦": 8154,
      "ãĤ·ãĤª": 8155,
      "è«Ń": 8156,
      "æķ°å¹´": 8157,
      "çĦ¼ãģĳ": 8158,
      "èŀįåĲĪ": 8159,
      "åħħéĽ»": 8160,
      "éģ¥": 8161,
      "ãĤ«ãĥ¯": 8162,
      "å¾ĮèĢħ": 8163,
      "ãĤ¤ãĤ¨ãĤ¹": 8164,
      "åİŁçĶ°": 8165,
      "åºĹåĵ¡": 8166,
      "ãĥ¼ãĤ¸ãĥ£": 8167,
      "ãĥĩãĤ¹": 8168,
      "ä¸ŃæľŁ": 8169,
      "æ±ºæĪ¦": 8170,
      "éģłãģı": 8171,
      "ãĤµãĤ¹ãĥļ": 8172,
      "ãĥŀãĤ¸ãĥĥãĤ¯": 8173,
      "è«ıè¨ª": 8174,
      "ãĥķãĤ§ãĥªãĥ¼": 8175,
      "ä»ĸç¤¾": 8176,
      "éĢĨè»¢": 8177,
      "çķľ": 8178,
      "ãĥªãĥ¥ãĥ¼ãĤ·ãĥ§ãĥ³": 8179,
      "éĸĭæĭĵ": 8180,
      "æ¤ľåĩº": 8181,
      "ãĤ°ãĥ©ãĥķãĤ£ãĥĥãĤ¯": 8182,
      "å¢¨": 8183,
      "ãĥĭãĤŃãĥĵ": 8184,
      "åĬłéĢŁ": 8185,
      "å±±éĻ½": 8186,
      "ãĤ¦ãĤ©ãĥ¼": 8187,
      "ä¹ı": 8188,
      "ä¸¦è¡Į": 8189,
      "ãĤ³ãĥ³ãĤ¯ãĥªãĥ¼ãĥĪ": 8190,
      "éĳĳè³ŀ": 8191,
      "ãģªãģĦ": 8192,
      "ãĤµãĥªãĥ¼": 8193,
      "ãģ«ãĤĪãģ£ãģ¦": 8194,
      "ãĤ³ãĥį": 8195,
      "æłªä¸»": 8196,
      "åĽ½éĺ²": 8197,
      "ãĥĬãĤ¤ãĥĨãĥĥãĥī": 8198,
      "çŁ¥çļĦ": 8199,
      "ãĤ·ãĥŃ": 8200,
      ">>": 8201,
      "ãĤªãĥªãĤ³ãĥ³": 8202,
      "æľ¨éĢł": 8203,
      "æĬĳåĪ¶": 8204,
      "æ·±åĪ»": 8205,
      "ãĤ¿ãĤ¤ãĤ¬": 8206,
      "å°ĳå°Ĩ": 8207,
      "å¸¸èŃĺ": 8208,
      "ãĥķãĤ©ãĥ¼ãĤ¯": 8209,
      "ãĤ³ãĥŃãĥ³ãĥĵãĤ¢": 8210,
      "åĮĹåģ´": 8211,
      "ãĥĪãĤ¦": 8212,
      "åī¯ä½ľçĶ¨": 8213,
      "åĪ¥éĢĶ": 8214,
      "ãģĬãģ¨": 8215,
      "åĵģå·Ŀ": 8216,
      "ãĥĦãĤ§": 8217,
      "æĦıç¾©": 8218,
      "é£ŁãģĦ": 8219,
      "è¦ªçİĭ": 8220,
      "ä½ľãĤĮ": 8221,
      "æ±łè¢ĭ": 8222,
      "æ¬§ç±³": 8223,
      "åĵĢ": 8224,
      "ãĤĤãĤīãģĪ": 8225,
      "ãģķãģ£": 8226,
      "ãĥ¦ãĥĬãĤ¤ãĥĨãĥĥãĥī": 8227,
      "ãĤ«ãĥĹ": 8228,
      "çĹ©ãģĽ": 8229,
      "å®¶èĩ£": 8230,
      "é£¯çĶ°": 8231,
      "ãĥ¼ãĤ¿ãĥ«": 8232,
      "èĪ¶": 8233,
      "ãĥ¼ãĥļ": 8234,
      "ãĤ¤ãĤ§": 8235,
      "åĬ©ãģĭ": 8236,
      "ãģĦãģıãģ¤": 8237,
      "åĳ¨æ³¢": 8238,
      "åĨħåģ´": 8239,
      "é¦¬åł´": 8240,
      "è¿ĶãģĹ": 8241,
      "ãĥŀãĥĥãĥĪ": 8242,
      "æķ°ãĢħãģ®": 8243,
      "å®īæīĵ": 8244,
      "éºº": 8245,
      "ãģĿãģ®ãĤĪãģĨ": 8246,
      "ãĢħãģĹ": 8247,
      "ãĤ´ãĥł": 8248,
      "ãĥ¦ãĥ¼ãĤ¶": 8249,
      "ãĥ³ãĥĻãĥ«ãĤ¯": 8250,
      "å®¶åħ·": 8251,
      "è¸ıãģ¿": 8252,
      "ãĥ¼ãĥ©ãĥł": 8253,
      "åıĹãģĳç¶Ļ": 8254,
      "ãĤµãĥ³ãĥĹãĥ«": 8255,
      "æĸ°ç¯ī": 8256,
      "æµ·è³Ĭ": 8257,
      "ãģľãĤĵ": 8258,
      "ä¼ĳæ¥Ń": 8259,
      "ãĤ¬ãĥĭ": 8260,
      "å¥³ç¥ŀ": 8261,
      "éĩİçĶ°": 8262,
      "ãģĦãģįãģªãĤĬ": 8263,
      "åºĹåĨħ": 8264,
      "åĤĳ": 8265,
      "æ´¾çĶŁ": 8266,
      "ç·©åĴĮ": 8267,
      "ãĥĭãĤª": 8268,
      "é´¨": 8269,
      "ãģ¨ãĤĮ": 8270,
      "ãĥ¯ãĥ¼ãĤ¯ãĤ¹": 8271,
      "ãĥ´ãĤ£ãĥĥãĥī": 8272,
      "èĩªè¦ļ": 8273,
      "èĴ¼": 8274,
      "ãĥĹãĥ©ãĥĥãĥĪãĥķãĤ©ãĥ¼ãĥł": 8275,
      "éłĺåľŁ": 8276,
      "ãĥłãĥ¼ãĥ³": 8277,
      "è¡ĮåĪĹ": 8278,
      "åıİçĽĬ": 8279,
      "ãĥģãĥĥãĥĹ": 8280,
      "ç¼": 8281,
      "é¶ı": 8282,
      "éĮ¯": 8283,
      "çĵ¦": 8284,
      "ãĥªãĤ¯ãĤ¨ãĤ¹ãĥĪ": 8285,
      "çĽ®æĴĥ": 8286,
      "ãģ¾ãĤıãĤĬ": 8287,
      "ç¹ģæ®ĸ": 8288,
      "ãĥ´ãĤ©ãĥ«": 8289,
      "ãĥ³ãĥģãĥ£": 8290,
      "ãĤ¨ãĥªãĤ¶": 8291,
      "éĸĭç¤º": 8292,
      "éķ·å¥³": 8293,
      "æ¼ł": 8294,
      "å·Ŀåı£": 8295,
      "èĮİ": 8296,
      "ãĤ«ãĤ¸": 8297,
      "è®Ĳ": 8298,
      "ä½ĨãģĹ": 8299,
      "è©¦ä½ľ": 8300,
      "ãģĮãģŁ": 8301,
      "ãĥ¢ãĤ¹": 8302,
      "ãģ§ãģĻãģĭãĤī": 8303,
      "ãĥĥãĤŃãĥª": 8304,
      "æ¤įãģĪ": 8305,
      "æ³ķåĭĻ": 8306,
      "ãģ°ãĤī": 8307,
      "å§ĭãģ¾ãĤĬ": 8308,
      "é£¼èĤ²": 8309,
      "ãĥĪãĥ¼ãĥŀ": 8310,
      "ãĤ°ãĥ¬ãĤ¤": 8311,
      "ç§ĳçĽ®": 8312,
      "åĽ½å¤ĸ": 8313,
      "ãĤµãĤ¦ãĤ¹": 8314,
      "ãĤ«ãĤ¦ãĥ³ãĤ¿ãĥ¼": 8315,
      "çŁ¥ãĤĬåĲĪ": 8316,
      "æĸĩèĬ¸": 8317,
      "è¶³åĪ©": 8318,
      "ä¸ĭä½į": 8319,
      "ãĥĲãĥ¬ãĤ¨": 8320,
      "å¤§æ´¥": 8321,
      "ãĤªãĤª": 8322,
      "ä½ķãģ¨": 8323,
      "ãĥªãĤ¹ãĥĬãĥ¼": 8324,
      "ãĥłãĥ¼ãĥĵãĥ¼": 8325,
      "ãĥªãĥ©ãĥĥãĤ¯ãĤ¹": 8326,
      "ä¸»æµģ": 8327,
      "ãĤ¤ãĥİ": 8328,
      "å¹ķæľ«": 8329,
      "åī¥": 8330,
      "æµ¦åĴĮ": 8331,
      "åı¢": 8332,
      "çĥı": 8333,
      "ç·ıçĿ£": 8334,
      "ä¼ĳæĨ©": 8335,
      "å£²ãĤĬä¸ĬãģĴ": 8336,
      "ãģ£ãģ·ãĤĬ": 8337,
      "åľŁæľ¨": 8338,
      "ãĥ¦ãĥĭãĥĲãĥ¼ãĤµãĥ«": 8339,
      "ãĥĵãĥĥãĤ¯": 8340,
      "ãĥªãĤ¦ãĤ¹": 8341,
      "ãĤ«ãĥ³ãĥĳãĥĭãĥ¼": 8342,
      "ãģĽãĤĪ": 8343,
      "ãĥŀãĤ¦ãĤ¹": 8344,
      "å½ĵéĻ¢": 8345,
      "æ®Ĩ": 8346,
      "å¢ĥåĨħ": 8347,
      "å®Ľ": 8348,
      "è³Ń": 8349,
      "ãĤµãĤ¯ãĥ©": 8350,
      "ãģµãģı": 8351,
      "é¨İæīĭ": 8352,
      "æĮģç¶ļ": 8353,
      "éģİåī°": 8354,
      "æ²³åİŁ": 8355,
      "èŃ¦æĪĴ": 8356,
      "æ¤ľå®ļ": 8357,
      "çĵ¶": 8358,
      "ãĤĮãĤĵ": 8359,
      "ãĥĹãĥŃãĥĨ": 8360,
      "ãĤ¢ãĥĬãĥŃãĤ°": 8361,
      "ãģĬåŃĲ": 8362,
      "æĴ¤åİ»": 8363,
      "ä½ķåĽŀ": 8364,
      "ãĥĳãĤ¦": 8365,
      "å°ĦæĴĥ": 8366,
      "æ¨ªéłĪè³Ģ": 8367,
      "çĶ·çĪµ": 8368,
      "ãĤ®ãĥ³": 8369,
      "è³ŀéĩĳ": 8370,
      "åĪĨãģĭãĤĬãĤĦãģĻ": 8371,
      "çĻ»è¨ĺ": 8372,
      "ãĤ«æľĪ": 8373,
      "æĿ¾äºķ": 8374,
      "ä¸īåĽ½": 8375,
      "çĮŁ": 8376,
      "ãĤ¸ãĥ³ãĤ°": 8377,
      "æľ¬è³ª": 8378,
      "æĹ¥éłĥ": 8379,
      "æīĵãģ¡ä¸ĬãģĴ": 8380,
      "ãĥ¼ãĥŁãĥ³ãĤ°": 8381,
      "äºĮä¸ģçĽ®": 8382,
      "ãĤ¦ãĤ§ãĤ¹ãĥĪ": 8383,
      "åľŁçĶ£": 8384,
      "ãĤ¬ãĥł": 8385,
      "æĹ¥åħī": 8386,
      "æĪĳãģĮå®¶": 8387,
      "ãĥĵãĤ¹": 8388,
      "åı¤å·Ŀ": 8389,
      "ä¸¦ãģ¿": 8390,
      "ä¸įåı¯æ¬ł": 8391,
      "ç¼¶": 8392,
      "é¹¿å³¶": 8393,
      "ãĥ¨ãĤ¬": 8394,
      "åīįæĸ¹": 8395,
      "æ¹§": 8396,
      "ãĥıãĥĥãĥĶãĥ¼": 8397,
      "æĶ¾æ£Ħ": 8398,
      "å¯©åĪ¤": 8399,
      "åĳĬçŁ¥": 8400,
      "è¥¿æĿĳ": 8401,
      "ãĤ¹ãĥ¯": 8402,
      "ç·ļè·¯": 8403,
      "æľīåĪ©": 8404,
      "å¾©è®Ĳ": 8405,
      "è¦ģä»¶": 8406,
      "åĲĮæľĪ": 8407,
      "ä¸ŃæĸŃ": 8408,
      "ãĥķãĥ¬ãĥ³ãĥī": 8409,
      "çĴ§": 8410,
      "å®ľãģĹãģı": 8411,
      "æĪ¦æĻĤ": 8412,
      "ãģĴãĤĵ": 8413,
      "éģ£ãģĦ": 8414,
      "èĥĨ": 8415,
      "åĽ½ç±į": 8416,
      "éĿŀéĽ£": 8417,
      "éĽ¶": 8418,
      "åĪĨæł¡": 8419,
      "ãĤ¢ãĥĥãĥĹãĥĩãĥ¼ãĥĪ": 8420,
      "æĶ¯çµ¦": 8421,
      "æĿ±åģ´": 8422,
      "åºµ": 8423,
      "å¤§ãģĦ": 8424,
      "ãĤŃãĥ¬ãĤ¤": 8425,
      "åĪĨè£Ĥ": 8426,
      "éĳĳå®ļ": 8427,
      "ãģĬãģ¯": 8428,
      "å»¶æľŁ": 8429,
      "è¾ŀä»»": 8430,
      "ãĤ¹ãĥŁãĤ¹": 8431,
      "å»ĥæ£Ħ": 8432,
      "éģŃéģĩ": 8433,
      "ãĤ³ãĥ³ãĥĹ": 8434,
      "åİŁé¡Į": 8435,
      "å½ĵåľ°": 8436,
      "æĲįåĤ·": 8437,
      "ãĥ©ãĥŀ": 8438,
      "ãĥĲãĥ¼ãĤ¹": 8439,
      "ç©ºãģį": 8440,
      "æĮģãģ¡è¾¼": 8441,
      "ãĥŃãĥĥãĥĨ": 8442,
      "ãĤģãĤĵ": 8443,
      "ãĤ¦ãĥŀ": 8444,
      "å½ĵå±Ģ": 8445,
      "åĪĿçīĪ": 8446,
      "åŃ¸": 8447,
      "ãĤ¹ãĤ¿ãĥ¼ãĤº": 8448,
      "å·¡æ´ĭ": 8449,
      "ãģĤãģ¾ãĤĬãģ«ãĤĤ": 8450,
      "çļĦãģ«": 8451,
      "ä¸ĢæĻĤçļĦãģ«": 8452,
      "ãĤ·ãĥ«ãĥĲãĥ¼": 8453,
      "é¨Ĵåĭķ": 8454,
      "ãģłãģĭãĤīãģĵãģĿ": 8455,
      "ãĤ®ãĥ«": 8456,
      "ç¶Ńæĸ°": 8457,
      "ç¤ºåĶĨ": 8458,
      "ç§ĢåĲī": 8459,
      "æ®ºãģĹ": 8460,
      "éĨ¸": 8461,
      "ãĤ³ãĥķ": 8462,
      "ä¹Ļå¥³": 8463,
      "ç¨¼åĥį": 8464,
      "æľīæ©Ł": 8465,
      "ä¸Ģè¨Ģ": 8466,
      "èĥ¡": 8467,
      "ãĥŀãĤ¤ãĥĬãĤ¹": 8468,
      "çī¹æĬĢ": 8469,
      "åŃĶ": 8470,
      "éģĭè³ĥ": 8471,
      "ä¸ĬãĤĬ": 8472,
      "çĶ³è¾¼ãģ¿": 8473,
      "èªŃæĽ¸": 8474,
      "å¤§è¼Ķ": 8475,
      "æ¬¡ãģ®ãĤĪãģĨãģ«": 8476,
      "å¤§èĶµ": 8477,
      "æ³ķåīĩ": 8478,
      "ãģ¥ãĤī": 8479,
      "ä¸ŃéļĬ": 8480,
      "éģķæ³ķ": 8481,
      "åĭ¢ãģĦ": 8482,
      "ãģ¿ãĤĦ": 8483,
      "è¢ĸ": 8484,
      "æº¢ãĤĮ": 8485,
      "ãģĮãĤı": 8486,
      "ãĥĭãĥ¼ãĥ«": 8487,
      "çĻ¾è²¨": 8488,
      "è²Į": 8489,
      "æĵ¬": 8490,
      "éħįéĢģ": 8491,
      "ä¼ĬéģĶ": 8492,
      "å¹´å§ĭ": 8493,
      "ãĤ¿ãĥ¼ãĤ²ãĥĥãĥĪ": 8494,
      "ãĥİãĥ«ãĤ¦ãĤ§ãĥ¼": 8495,
      "å®¶åº·": 8496,
      "ãĤĦãĤĬåıĸãĤĬ": 8497,
      "åħĪéłŃ": 8498,
      "ãĤ«ãĤ¦ãĥ³ãĤ»ãĥªãĥ³ãĤ°": 8499,
      "ãĤ¢ãĤ¤ãĤ³ãĥ³": 8500,
      "èĪ¹èĪ¶": 8501,
      "éģłèĹ¤": 8502,
      "ãģłãĤī": 8503,
      "ãģĦãģĺãĤģ": 8504,
      "å¤ĸç·ļ": 8505,
      "å»Ĭ": 8506,
      "çİ²": 8507,
      "å±±èĦĪ": 8508,
      "éĢłèĪ¹": 8509,
      "èĳ¬åĦĢ": 8510,
      "ãĥ³ãĥĢãĤ¤": 8511,
      "äºĶä½į": 8512,
      "ãĥİãĥĻãĥ«": 8513,
      "è®ĥ": 8514,
      "ç¿Ĵå¾Ĺ": 8515,
      "æĹ¥éĩİ": 8516,
      "åĺ©": 8517,
      "ãĤ°ãĥ©ãĤ¦ãĥ³ãĥī": 8518,
      "å±±å²³": 8519,
      "ä¸Ģå¿ľ": 8520,
      "æİ´": 8521,
      "è¦ĭç©įãĤĤãĤĬ": 8522,
      "èĤ¡": 8523,
      "æļģ": 8524,
      "ãĤ«ãĥ³ãĥī": 8525,
      "ãģ¯ãģĺãĤģãģ¦": 8526,
      "æĽ¸è¨ĺ": 8527,
      "è¿ĳæ±Ł": 8528,
      "çµ¶ãģĪ": 8529,
      "ä¹Ĺå®¢": 8530,
      "ãĥŁãĥĥãĥĪ": 8531,
      "é°": 8532,
      "çĶºåĲį": 8533,
      "éķ·å²¡": 8534,
      "ãĥķãĥªãĥ¼ãĥī": 8535,
      "ãĤ¢ãĥĥ": 8536,
      "æ³ķçļĦ": 8537,
      "æĩ¸å¿µ": 8538,
      "æĹ¥æĻĤ": 8539,
      "æ®Ĩãģ©": 8540,
      "ãĤ¿ãĤ«": 8541,
      "ãĥªãĥĥãĤ¸": 8542,
      "ãĤ·ãĥ¥ãĤ¿ãĤ¤ãĥ³": 8543,
      "ãĤ¢ãĤŃ": 8544,
      "ç±³è»į": 8545,
      "äº¤ãĤı": 8546,
      "æļĸãģĭ": 8547,
      "ãĤ«ãĥ¡": 8548,
      "æŃ¦å£«": 8549,
      "æĶ¹è¨Ĥ": 8550,
      "åĸ§åĺ©": 8551,
      "æ¼Ĥ": 8552,
      "ãģĿãĤĬ": 8553,
      "ä¸Ńå°Ĩ": 8554,
      "æĸ¼": 8555,
      "ä½ıåıĭ": 8556,
      "åĨ·éĿĻ": 8557,
      "çŁ¥ãĤĬåĲĪãģĦ": 8558,
      "ãĤ³ãĥ¼ãĥ©ãĤ¹": 8559,
      "åĲĽä¸»": 8560,
      "ä»ķæĸ¹ãģª": 8561,
      "è¦ļæĤŁ": 8562,
      "çĶŁæħĭ": 8563,
      "åĢĭãĢħ": 8564,
      "å°ĭãģŃ": 8565,
      "ãĤµãĥĹãĥªãĥ¡ãĥ³ãĥĪ": 8566,
      "ãģ©ãģĨãĤĤ": 8567,
      "åĩĿ": 8568,
      "ãĥĵãĥ¼ãĥł": 8569,
      "åĬŁç¸¾": 8570,
      "å¾Įè¼©": 8571,
      "ãĤ¸ãĤ§ãĥį": 8572,
      "æĿ±æµ·éģĵ": 8573,
      "åĩ¦åĪĳ": 8574,
      "ãĥ§ãĤ¦": 8575,
      "ãĤ³ãĤ³": 8576,
      "æķıæĦŁ": 8577,
      "æĩ¸åĳ½": 8578,
      "å§«è·¯": 8579,
      "æĿ±æĸ¹": 8580,
      "çµĦãģ¿è¾¼": 8581,
      "ãĥ©ãĤ¤ãĥĸãĥ©": 8582,
      "åĹ£": 8583,
      "ãĥīãĥ¼": 8584,
      "ç«¶è¼ª": 8585,
      "ãģĥ": 8586,
      "ç¸®å°ı": 8587,
      "è¸ĬãĤĬ": 8588,
      "ãĥģãĥĬ": 8589,
      "æĬĺãĤĬ": 8590,
      "è¿ĳéĥĬ": 8591,
      "å£ĬãĤĮ": 8592,
      "çĻ¾è²¨åºĹ": 8593,
      "éĥ½åĨħ": 8594,
      "ãĤ«ãĤ¦": 8595,
      "éł»åº¦": 8596,
      "å·§": 8597,
      "è¿Ķäºĭ": 8598,
      "éģºä½ĵ": 8599,
      "ãĤ¨ãĤ¤ãĥĪ": 8600,
      "ãĥ¬ãĥ³ãĤ¹": 8601,
      "ãĥ³ãĥĺ": 8602,
      "é§Ĩåĭķ": 8603,
      "ç²ĴåŃĲ": 8604,
      "è¬Ŀç½ª": 8605,
      "å¤ļåĪĨ": 8606,
      "ãĤ«ãĥĥãĥĹãĥ«": 8607,
      "åĢīåº«": 8608,
      "åĽļ": 8609,
      "å»ºç«ĭ": 8610,
      "ãĥĺãĤ¤": 8611,
      "ãĤ³ãĥĪ": 8612,
      "æĺİçŁ³": 8613,
      "ä¿Ŀæ¹¿": 8614,
      "ãĤ¹ãĥĨãĤ£ãĥĥãĤ¯": 8615,
      "æĹ©ãĤģãģ«": 8616,
      "å°º": 8617,
      "ãĥķãĥ¥": 8618,
      "åĵģç¨®": 8619,
      "å¸Ĥè²©": 8620,
      "ãĥ¬ãĥ¼ãĥī": 8621,
      "æĻ¯èī²": 8622,
      "æ±ºæĸŃ": 8623,
      "åĪ¶æľį": 8624,
      "ãģ®ãģ¼": 8625,
      "ãĤ·ãĥŁãĥ¥": 8626,
      "ãģªãĤĵãģłãģĭ": 8627,
      "çĻ¾åĲĪ": 8628,
      "å¤ĸè¦³": 8629,
      "ä¸»å°İ": 8630,
      "åŃ¦éķ·": 8631,
      "æ¬łãģĭãģĽ": 8632,
      "ç´¯": 8633,
      "æĪ¦åł´": 8634,
      "åİŁçĲĨ": 8635,
      "éĦ": 8636,
      "äºĶè¼ª": 8637,
      "éłĨçķª": 8638,
      "ãĤ¿ãĥ³ãĥĪ": 8639,
      "çµ¦ä¸İ": 8640,
      "æ¨½": 8641,
      "ãĥĪãĥŀ": 8642,
      "ãĥĪãĥ©ãĥ³ãĥĹ": 8643,
      "ä»ĺä¸İ": 8644,
      "å¤©ä½ĵ": 8645,
      "çīĻ": 8646,
      "ãĥĳãĥ³ãĥģ": 8647,
      "çĶŁåŃĺ": 8648,
      "åĩ¶": 8649,
      "åħ¨èĪ¬": 8650,
      "éĢĢåĽ£": 8651,
      "æīĭç¶ļ": 8652,
      "ãģĭãģ¿": 8653,
      "æ¨ªå±±": 8654,
      "ãĤ¹ãĤ¯ãĥªãĥ¼ãĥ³": 8655,
      "æŃ¦éģĵ": 8656,
      "ãĥ¼ãĥĪãĥ³": 8657,
      "ç´łçĽ´": 8658,
      "ä»£ãĤıãĤĬãģ«": 8659,
      "ãĥ²": 8660,
      "æ©Łéĸ¢è»Ĭ": 8661,
      "ãĤ³ãĥ¼ãĥĿ": 8662,
      "ç´Ķç²ĭ": 8663,
      "åķĨå·¥": 8664,
      "åı²æĸĻ": 8665,
      "ãĥ¤ãĥ¼ãĥī": 8666,
      "ãĥīãĥªãĥ³ãĤ¯": 8667,
      "ãĤ¨ãĥ¼ãĤ¸ãĤ§ãĥ³ãĥĪ": 8668,
      "ãĤªãĥĬ": 8669,
      "æ±ļæŁĵ": 8670,
      "é·²": 8671,
      "åĨįç·¨": 8672,
      "å±ķæľĽ": 8673,
      "ãĤĤãģĨä¸Ģãģ¤": 8674,
      "å¥ıèĢħ": 8675,
      "åĮĹç±³": 8676,
      "ãģĹãģ®": 8677,
      "æŀ¢": 8678,
      "çĦ¡éĻĲ": 8679,
      "ãģķãĤīãģ«ãģ¯": 8680,
      "ãģ¿ãģļ": 8681,
      "ãĥĪãĥ¼ãĥŀãĤ¹": 8682,
      "äººå¦»": 8683,
      "çķ³": 8684,
      "ãģĬãĤģãģ§": 8685,
      "ãĥģãĥ£ãĤ¤": 8686,
      "ãģ¤ãĤī": 8687,
      "åķĨæ¨Ļ": 8688,
      "ãģ¨ãĤģ": 8689,
      "å¸°å®ħ": 8690,
      "ãģµãģŁãĤĬ": 8691,
      "ç¶¬": 8692,
      "ãĥªãĥ¢": 8693,
      "ãĤ¹ãĤ¯ãĥª": 8694,
      "èµ·æ¥Ń": 8695,
      "ãģ¡ãĤħãģĨ": 8696,
      "æİĴåĩº": 8697,
      "åħ¨éĽĨ": 8698,
      "å¤©æŃ£": 8699,
      "ãģªãģķãģĦ": 8700,
      "ãģ¡ãĤĩãģ£ãģ¨ãģĹãģŁ": 8701,
      "æĩĩ": 8702,
      "å¤©åĢĻ": 8703,
      "èªŃãĤģ": 8704,
      "ä¸»ä»»": 8705,
      "ãĥŁãĥ©ãĥ¼": 8706,
      "ãĤ«ãĥŃãĥªãĥ¼": 8707,
      "èª¤è§£": 8708,
      "ãĥ³ãĥķãĤ¡": 8709,
      "ãĤ¤ãĥ©ãĤ¯": 8710,
      "çĻºè¦ļ": 8711,
      "çĽ¸æ¬¡": 8712,
      "çłķ": 8713,
      "ãģ´ãģ£ãģŁãĤĬ": 8714,
      "å®ĮçĴ§": 8715,
      "åĻĽ": 8716,
      "éĸĭå±Ģ": 8717,
      "èº«åĪĨ": 8718,
      "çĽĽå²¡": 8719,
      "ãĤ¿ãĥĸãĥ¬ãĥĥãĥĪ": 8720,
      "éĥĬå¤ĸ": 8721,
      "åĭĺéģķãģĦ": 8722,
      "åįĹåģ´": 8723,
      "ä¼ĳæļĩ": 8724,
      "ãģŃãĤĵ": 8725,
      "ãĤ¢ãĥ¼ãĥ«": 8726,
      "ãĥīãĥĬãĥ«ãĥī": 8727,
      "çĽĽãĤĬä¸ĬãģĮ": 8728,
      "ãĤ°ãĥĥãĥī": 8729,
      "ãģĦãģĭãģ«": 8730,
      "ãĥĹãĥģ": 8731,
      "åĨħçĶ°": 8732,
      "æĮģãģ¡ä¸»": 8733,
      "åĪĿæĹ¥": 8734,
      "ãĥŁãĥįãĥ¼ãĥĪ": 8735,
      "åºĹéłŃ": 8736,
      "ãĥīãĥĥãĤ°": 8737,
      "ãĥĸãĥ©ãĥ³": 8738,
      "åħ¨ç·ļ": 8739,
      "åŃĺç¶ļ": 8740,
      "å·¦è¡ĽéĸĢ": 8741,
      "ãĥŀãĥĥ": 8742,
      "ãģĤãĤĬãģĮãģŁ": 8743,
      "èĩªç«ĭ": 8744,
      "é§Ĳå±¯": 8745,
      "åĽŀè·¯": 8746,
      "æ¥½åľĴ": 8747,
      "ãĥıãĥ¼ãĥķ": 8748,
      "å»£": 8749,
      "å¤īãĤıãĤĬ": 8750,
      "åİ»å¹´": 8751,
      "ãĥ¡ãĤ½": 8752,
      "æķĳåĬ©": 8753,
      "åĩºé¦¬": 8754,
      "æļ´èµ°": 8755,
      "éĥ¨ä½į": 8756,
      "åĲīæľ¬": 8757,
      "æķ°åįģ": 8758,
      "å®ĺæĪ¿": 8759,
      "æ¤ľå¯Ł": 8760,
      "ãĤ±ãĥ¼ãĥī": 8761,
      "å²¡æľ¬": 8762,
      "çªģåħ¥": 8763,
      "å¦Ħ": 8764,
      "å¤§çĶ°": 8765,
      "ãĤ¨ãĥ«ãĥ³": 8766,
      "ãĥ¢ãĥĭãĤ¿ãĥ¼": 8767,
      "æĹ©å·Ŀ": 8768,
      "å®īçĶ°": 8769,
      "ãĤ¨ãĥĥãĥģ": 8770,
      "å®Łæħĭ": 8771,
      "ãĤªãĥ©": 8772,
      "ç´°èıĮ": 8773,
      "ãĥ¢ãĥŃ": 8774,
      "é«ĺæľ¨": 8775,
      "ãĥ¦ãĥĭãĤªãĥ³": 8776,
      "ãģŁãģ¾ãģŁ": 8777,
      "ãĥĿãĤ¹ãĤ¿ãĥ¼": 8778,
      "éħįåĤĻ": 8779,
      "çŁ¯": 8780,
      "æ·»ãģĪ": 8781,
      "åĪĨæ³Į": 8782,
      "ãĥŀãĥĭãĥ¥ãĤ¢ãĥ«": 8783,
      "éģ©å½ĵ": 8784,
      "çµĤæĪ¦": 8785,
      "åĩ¦æĸ¹": 8786,
      "ãĤ¶ãĥ¼ãĤº": 8787,
      "æ±ºèŃ°": 8788,
      "ãĥ¬ãĤ³": 8789,
      "ãĥĨãĥ¬ãĥĵãĤ¸ãĥ§ãĥ³": 8790,
      "ãģµãĤĭãģķãģ¨": 8791,
      "ä»ĬæľĪ": 8792,
      "ãĤ³ãĥ©ãĥľãĥ¬ãĥ¼ãĤ·ãĥ§ãĥ³": 8793,
      "ãĥĿãĥ¼ãĤº": 8794,
      "åħ¬ç¤¾": 8795,
      "ãĥľãĤ¦": 8796,
      "å¸«ç¯Ħ": 8797,
      "åĲįæīĢ": 8798,
      "ãĥªãĥı": 8799,
      "ãĥĦãĤ¤ãĥ³": 8800,
      "æ°´æºĸ": 8801,
      "çľŁçĲĨ": 8802,
      "å®¤çĶº": 8803,
      "ãĤµãĥ³ãĥĩãĥ¼": 8804,
      "å¶º": 8805,
      "ãĥ¯ãĥ¼ãĤ¯ãĤ·ãĥ§ãĥĥãĥĹ": 8806,
      "ãģļãĤĭ": 8807,
      "åıįçĻº": 8808,
      "ãģ¸ãĤĵ": 8809,
      "è»Ĭç¨®": 8810,
      "å¥½æĦı": 8811,
      "è±ªèı¯": 8812,
      "æŁĶè»Ł": 8813,
      "èĪªæµ·": 8814,
      "ãģ¾ãģı": 8815,
      "ãĥĩãĤ£ãĤ¹ãĥĹãĥ¬ãĤ¤": 8816,
      "æİ¨ç§»": 8817,
      "æ²¡å¹´": 8818,
      "åķıåĲĪãģĽ": 8819,
      "ãĥĩãĤ£ãĤ¹ãĤ³ãĤ°ãĥ©ãĥķãĤ£": 8820,
      "ãģĵãģĦ": 8821,
      "ãĥĲãĤ·ãĥ¼": 8822,
      "ãĤ¹ãĥ¬": 8823,
      "ãĥ¼ãĥĭãĥ¼": 8824,
      "èı©": 8825,
      "ãģĵãģłãĤıãĤĬ": 8826,
      "å¤©ç¥ŀ": 8827,
      "çİĦéĸ¢": 8828,
      "ãģĦãģ§": 8829,
      "æ¢Ŀ": 8830,
      "ãĥĩãĥĥãĤŃ": 8831,
      "éĩĳéĬŃ": 8832,
      "å°ıå±ĭ": 8833,
      "ãĥµ": 8834,
      "è£½èĸ¬": 8835,
      "æĦĽæĥħ": 8836,
      "åĽŀç·ļ": 8837,
      "å¹´è¡¨": 8838,
      "éĢ£è¦ĩ": 8839,
      "æĴŃ": 8840,
      "ãģķãģĭ": 8841,
      "Ðµ": 8842,
      "è»ĬåĨħ": 8843,
      "Ã¤": 8844,
      "ãĤ¤ãĥ³ãĥķãĥ«": 8845,
      "è©ķèŃ°": 8846,
      "ãĥ¼ãĥ´ãĤ£": 8847,
      "ãĤ¢ãĥ¼ãĥł": 8848,
      "èŃ°å¸Ń": 8849,
      "èĢĲä¹ħ": 8850,
      "å¯ĤãģĹ": 8851,
      "éģĵãģ®": 8852,
      "æµħèįī": 8853,
[...]
